<unk>	0
<s>	0
</s>	0
,	-2.89956
.	-3.34882
▁в	-3.82711
▁и	-3.89854
▁	-4.22603
е	-4.37539
а	-4.44622
▁на	-4.56321
▁не	-4.69906
▁с	-4.8315
и	-4.90868
й	-4.98872
▁«	-4.99497
м	-4.99713
▁—	-5.02848
-	-5.03963
х	-5.08916
▁что	-5.09795
▁по	-5.19758
▁(	-5.4085
у	-5.45293
ы	-5.48323
о	-5.55287
▁В	-5.58679
ой	-5.58938
ом	-5.62321
▁к	-5.68801
»	-5.70423
я	-5.73308
▁за	-5.74111
▁из	-5.78459
▁как	-5.81508
▁от	-5.83201
▁о	-5.85579
ого	-5.85934
:	-5.86871
▁а	-5.90188
▁для	-5.99783
ая	-5.99883
ов	-5.99993
)	-6.0385
ся	-6.06234
▁у	-6.11031
ми	-6.11718
▁это	-6.14559
го	-6.16557
▁его	-6.20924
▁или	-6.33815
▁до	-6.36996
ю	-6.39826
▁но	-6.42383
ую	-6.4304
▁он	-6.44642
▁при	-6.47015
то	-6.49366
▁то	-6.5076
▁же	-6.54597
».	-6.54782
в	-6.55794
ых	-6.56326
▁А	-6.59775
?	-6.59885
»,	-6.61068
▁-	-6.62895
т	-6.64033
▁года	-6.6431
▁так	-6.65719
▁С	-6.6781
▁И	-6.70612
с	-6.7084
▁я	-6.71101
ть	-6.71245
▁все	-6.72416
▁"	-6.73282
).	-6.75402
▁только	-6.76396
▁было	-6.76649
;	-6.79153
ами	-6.79891
▁–	-6.8003
▁под	-6.837
▁их	-6.84123
▁был	-6.84531
▁уже	-6.85299
▁бы	-6.86743
ет	-6.87658
▁По	-6.88096
!	-6.91427
л	-6.93543
ли	-6.94049
▁также	-6.94202
ый	-6.9463
▁будет	-6.96173
▁время	-6.97184
ных	-6.98012
▁том	-6.98689
▁,	-6.99636
▁году	-7.00156
ка	-7.00765
),	-7.01077
▁может	-7.03388
ые	-7.0498
ной	-7.05248
ки	-7.06302
▁которые	-7.09015
на	-7.09264
▁раз	-7.09471
...	-7.09611
▁На	-7.10138
▁со	-7.10501
▁Но	-7.1179
ое	-7.12805
ь	-7.13118
но	-7.13544
▁этом	-7.14166
▁об	-7.14175
▁если	-7.14928
▁вы	-7.1526
▁они	-7.16009
д	-7.16787
ные	-7.16867
▁того	-7.1756
▁мы	-7.18085
▁быть	-7.18108
▁во	-7.19277
▁•	-7.19959
п	-7.21578
ий	-7.22624
▁есть	-7.22878
▁были	-7.24023
▁чтобы	-7.24691
▁.	-7.25087
▁про	-7.25412
ного	-7.26394
ный	-7.26607
▁когда	-7.26925
н	-7.28386
ла	-7.28832
▁России	-7.29264
ым	-7.29299
▁можно	-7.29562
ем	-7.30445
ей	-7.30632
▁более	-7.32425
▁этого	-7.34428
▁лет	-7.35114
▁после	-7.36232
▁без	-7.36363
▁она	-7.39246
▁была	-7.41004
▁ни	-7.41124
"	-7.41641
▁который	-7.41791
за	-7.42126
▁даже	-7.42747
ах	-7.43334
▁Это	-7.43708
ие	-7.43915
▁Не	-7.44004
▁ли	-7.4442
ная	-7.44811
▁всё	-7.46121
▁Я	-7.48517
ку	-7.48782
▁чем	-7.49302
▁К	-7.49587
▁очень	-7.50578
▁ещё	-7.50702
▁где	-7.51646
▁тем	-7.528
к	-7.54425
ам	-7.57554
▁У	-7.58172
▁Как	-7.59871
▁При	-7.6009
р	-7.61723
▁является	-7.62403
▁себя	-7.6332
▁т	-7.6355
им	-7.63806
▁Федерации	-7.6396
не	-7.65019
▁О	-7.65302
▁её	-7.66729
▁между	-7.67056
та	-7.67187
▁пере	-7.68215
му	-7.68277
их	-7.69
▁Российско	-7.692
▁человек	-7.71094
з	-7.73215
▁них	-7.73635
С	-7.73871
ют	-7.74668
▁ее	-7.74708
ок	-7.75339
ным	-7.75988
В	-7.76241
▁М	-7.76287
▁всех	-7.76641
▁меня	-7.76952
▁больше	-7.77664
ия	-7.77707
▁которых	-7.77974
сти	-7.78055
▁этот	-7.78264
▁просто	-7.78549
▁сам	-7.78624
▁один	-7.78768
▁всего	-7.789
ную	-7.79129
s	-7.79867
▁нет	-7.80293
▁могут	-7.80339
▁США	-7.81405
по	-7.81467
▁этой	-7.81859
ется	-7.82378
лась	-7.82434
▁еще	-7.82801
▁нас	-7.82916
▁1	-7.83828
▁кто	-7.84109
ло	-7.84349
б	-7.847
ит	-7.84777
лись	-7.85152
▁Он	-7.85786
▁ему	-7.86965
▁Так	-7.89372
▁Если	-7.89935
А	-7.90231
▁мне	-7.90365
▁случае	-7.91659
▁г	-7.91859
▁За	-7.92824
ное	-7.92996
▁жизни	-7.93628
ч	-7.93715
▁других	-7.9408
ж	-7.94163
▁Однако	-7.94606
▁будут	-7.953
ен	-7.95483
ля	-7.96348
ии	-7.96696
ни	-7.97782
▁да	-7.97854
▁через	-7.98512
▁эти	-7.99238
▁времени	-8.00498
▁вот	-8.00779
да	-8.01241
▁Вы	-8.01674
ыми	-8.01696
▁там	-8.01751
▁несколько	-8.01988
ому	-8.02021
▁П	-8.02307
▁2	-8.03403
▁которая	-8.04361
/	-8.04688
ться	-8.06789
или	-8.07009
▁своей	-8.07341
▁много	-8.07412
▁него	-8.07491
ко	-8.07613
▁человека	-8.09319
▁против	-8.09345
▁людей	-8.09503
▁которой	-8.09629
▁страны	-8.0974
ст	-8.10313
▁перед	-8.10495
▁образом	-8.11123
▁10	-8.11241
сть	-8.11303
▁два	-8.11386
ке	-8.11935
▁себе	-8.12069
ном	-8.12372
▁этих	-8.12516
▁свою	-8.12587
▁лишь	-8.12735
ить	-8.13963
ш	-8.14144
▁именно	-8.14461
▁день	-8.1552
",	-8.16251
▁место	-8.16395
▁год	-8.16414
ию	-8.16516
г	-8.17492
ость	-8.1766
▁работы	-8.17668
ны	-8.179
ской	-8.1798
▁Да	-8.18217
▁над	-8.18857
▁должны	-8.18914
от	-8.19729
ев	-8.20163
▁РФ	-8.20463
ются	-8.20985
ти	-8.22451
▁своих	-8.22587
▁стороны	-8.23849
".	-8.23995
▁числе	-8.24626
ин	-8.24659
▁ты	-8.24837
ости	-8.25086
▁потому	-8.25305
ал	-8.25339
▁пока	-8.25793
▁стал	-8.26581
лся	-8.2711
ными	-8.27372
▁тоже	-8.27394
▁»	-8.27395
▁им	-8.27568
ского	-8.27897
М	-8.28347
ва	-8.28671
▁власти	-8.28691
▁около	-8.29049
ру	-8.29594
▁которого	-8.29767
П	-8.29988
ков	-8.30277
ри	-8.30561
ят	-8.30638
▁п	-8.31521
▁такой	-8.31734
▁свои	-8.31774
▁двух	-8.3185
он	-8.31888
▁вопрос	-8.31893
ф	-8.3192
▁Во	-8.32274
те	-8.32287
▁люди	-8.32475
▁18	-8.32744
▁сейчас	-8.32942
▁3	-8.33044
ле	-8.33057
▁три	-8.33336
▁Что	-8.33699
▁сказал	-8.34489
▁тех	-8.34662
▁долларов	-8.34709
▁нужно	-8.35148
▁хотя	-8.35361
▁части	-8.3547
ил	-8.35778
▁собой	-8.36333
▁одной	-8.37111
▁области	-8.37494
ский	-8.3769
▁связи	-8.377
▁другие	-8.37703
▁мира	-8.37732
▁часть	-8.37906
▁4	-8.3793
▁конечно	-8.38185
▁Д	-8.38338
▁должен	-8.38504
▁имеет	-8.38605
▁Дл	-8.3873
▁После	-8.3888
▁всегда	-8.39038
▁однако	-8.39221
▁надо	-8.39552
О	-8.39917
га	-8.40018
▁почти	-8.40918
▁тот	-8.41142
▁своего	-8.41337
▁либо	-8.41616
▁20	-8.42206
▁ничего	-8.42298
▁компании	-8.42857
▁теперь	-8.43013
до	-8.43159
▁решения	-8.43175
▁качестве	-8.43551
▁Г	-8.43604
▁млн	-8.43711
▁Мы	-8.43879
▁Ф	-8.44109
ив	-8.44243
▁здесь	-8.44244
▁5	-8.44802
▁решение	-8.44824
▁потом	-8.45244
ность	-8.45599
▁пор	-8.45782
ее	-8.4597
▁например	-8.46376
ния	-8.46869
▁вообще	-8.46967
▁менее	-8.47062
ль	-8.47329
кой	-8.48158
из	-8.48435
▁статьи	-8.49639
ясь	-8.49783
▁чего	-8.49907
▁системы	-8.49918
▁одного	-8.50008
▁какой	-8.5054
▁сегодня	-8.51674
ре	-8.51808
▁Google	-8.5189
2	-8.52028
▁Ну	-8.52164
▁те	-8.52213
▁Украины	-8.52256
▁другой	-8.52554
▁Л	-8.52573
ние	-8.52904
са	-8.53076
▁права	-8.53754
▁жизнь	-8.54046
ер	-8.54072
▁действия	-8.54144
И	-8.5427
ро	-8.54391
▁рас	-8.54676
вер	-8.54747
▁рублей	-8.54811
▁дело	-8.55209
▁граждан	-8.5537
▁Вот	-8.55578
▁группы	-8.55641
▁этим	-8.55641
ор	-8.55895
Т	-8.56188
ча	-8.56345
▁6	-8.56851
ра	-8.57215
▁суд	-8.57249
▁1.	-8.57581
▁2.	-8.57766
▁Е	-8.57818
y	-8.58036
▁развития	-8.58049
ты	-8.58854
i	-8.58867
▁Б	-8.59218
▁Р	-8.59287
▁таких	-8.59428
▁государства	-8.59616
▁говорит	-8.60017
▁Все	-8.60289
▁свой	-8.60297
▁заявил	-8.6036
▁момент	-8.60405
▁которое	-8.60838
ru	-8.60906
▁поскольку	-8.61204
па	-8.61235
об	-8.61269
▁15	-8.61547
ись	-8.61705
▁Из	-8.61993
лось	-8.62128
К	-8.62826
▁де	-8.62841
▁тогда	-8.63079
▁эту	-8.63116
ту	-8.63215
▁эта	-8.63643
▁результате	-8.64004
▁соответстви	-8.64006
▁тут	-8.64111
▁No	-8.64417
▁тому	-8.64554
▁Кром	-8.64679
ать	-8.64794
де	-8.64906
би	-8.64909
▁стран	-8.6523
ист	-8.65695
▁Статья	-8.65734
▁среди	-8.65767
▁назад	-8.65959
▁S	-8.66133
▁деятельности	-8.66179
ар	-8.66308
▁б	-8.66845
▁Они	-8.669
▁виде	-8.66965
ди	-8.67068
▁возможность	-8.67157
▁вместе	-8.673
▁дела	-8.67387
▁лиц	-8.67394
▁Т	-8.67854
▁Об	-8.67875
▁Н	-8.68037
▁ним	-8.68315
▁дня	-8.68501
▁котором	-8.6892
▁такие	-8.69649
▁территории	-8.69811
▁кино	-8.69981
▁вас	-8.70015
▁всем	-8.70217
▁тыс	-8.70235
нибудь	-8.70275
ры	-8.70438
u	-8.70504
цы	-8.70587
▁места	-8.70934
Д	-8.70961
▁слова	-8.71043
▁века	-8.7111
во	-8.71261
▁сделать	-8.71291
▁словам	-8.71399
▁лучше	-8.71671
стр	-8.72068
Б	-8.72077
ба	-8.72365
▁тысяч	-8.72734
▁интернет	-8.72895
▁Э	-8.72985
▁первый	-8.73132
n	-8.73268
смотря	-8.73573
ос	-8.73741
▁организации	-8.73854
▁оно	-8.73899
ности	-8.73956
▁Она	-8.73973
▁12	-8.74099
ну	-8.7415
ком	-8.74164
▁стало	-8.74327
1	-8.74368
при	-8.74437
▁такое	-8.74507
▁право	-8.74534
ня	-8.74749
▁стали	-8.7501
▁истории	-8.7552
▁сразу	-8.75639
ги	-8.75734
▁До	-8.75843
▁детей	-8.76079
▁такого	-8.76158
▁конце	-8.76259
▁--	-8.76268
e	-8.76299
▁мир	-8.7645
▁известно	-8.7655
ду	-8.76733
ских	-8.7684
▁мире	-8.77282
▁То	-8.77548
ут	-8.77695
▁дома	-8.77848
▁начала	-8.78019
ось	-8.78029
ская	-8.78238
4	-8.78265
▁информации	-8.78508
▁президент	-8.78607
Г	-8.7899
▁возможно	-8.79
ения	-8.79029
▁нам	-8.79043
▁8	-8.79127
тель	-8.79264
▁являются	-8.79528
▁период	-8.79613
▁7	-8.79636
ец	-8.79688
▁месте	-8.80216
Я	-8.80371
▁следует	-8.80541
▁количество	-8.80652
ство	-8.80697
▁млрд	-8.80798
▁поэтому	-8.80805
▁достаточно	-8.80812
▁часто	-8.80853
▁совсем	-8.80867
▁хорошо	-8.81167
▁средств	-8.81412
тор	-8.81485
▁лица	-8.81488
▁города	-8.816
▁практически	-8.81772
чи	-8.8187
▁ей	-8.82603
▁Россия	-8.82606
▁почему	-8.82621
вы	-8.82648
ц	-8.82787
▁пребывания	-8.82886
▁особенно	-8.83244
Н	-8.83563
▁должно	-8.83609
▁сообщает	-8.83714
▁2010	-8.83746
▁Про	-8.8391
▁совершенно	-8.83954
o	-8.84011
▁16	-8.84024
▁деньги	-8.84241
лен	-8.84358
▁30	-8.84551
▁президента	-8.84562
▁должна	-8.84746
ские	-8.84878
ение	-8.84898
▁17	-8.84919
▁От	-8.85277
ши	-8.85354
t	-8.85526
▁течение	-8.85558
пе	-8.85622
ше	-8.85718
али	-8.85824
▁(«	-8.85873
▁стране	-8.85962
▁Поэтому	-8.86097
▁стала	-8.86139
▁которую	-8.86175
—	-8.86202
▁какие	-8.86207
▁стоит	-8.86303
▁ведь	-8.86376
▁второй	-8.86433
▁частности	-8.86649
лю	-8.86759
▁типа	-8.86843
▁одна	-8.87161
▁две	-8.87546
▁друг	-8.87754
a	-8.88206
ник	-8.88221
▁одно	-8.88563
про	-8.88583
▁14	-8.89013
▁книги	-8.89094
▁сказать	-8.89232
▁Когда	-8.89312
че	-8.89453
▁11	-8.89491
▁своим	-8.89872
▁A	-8.89966
▁новых	-8.8999
3	-8.90012
▁деле	-8.90187
S	-8.90333
▁ко	-8.90528
▁Москвы	-8.90847
жи	-8.91287
ина	-8.91395
э	-8.91401
▁годы	-8.91419
▁часов	-8.91723
▁равно	-8.91731
сь	-8.91889
овой	-8.91971
▁таким	-8.9203
▁3.	-8.92059
У	-8.92077
▁одним	-8.92146
▁необходимо	-8.92378
▁Москве	-8.92604
▁войны	-8.9262
ова	-8.92704
либо	-8.92978
▁самом	-8.93005
▁мало	-8.93123
▁прав	-8.93395
▁статье	-8.93606
▁Владимир	-8.9371
ша	-8.93733
▁Александр	-8.93984
ик	-8.9418
▁каждый	-8.94417
ста	-8.94765
r	-8.94795
ась	-8.94798
жа	-8.94927
Р	-8.95229
▁нового	-8.95454
▁9	-8.95472
▁многие	-8.95506
ве	-8.9557
▁порядке	-8.95805
▁новые	-8.95849
▁Республики	-8.96407
▁очередь	-8.96409
▁проект	-8.96585
▁ряд	-8.96629
▁первой	-8.96767
▁уж	-8.96791
ства	-8.97059
▁никогда	-8.97319
▁Тем	-8.97554
▁проблемы	-8.9759
ан	-8.97707
▁д	-8.97742
▁мая	-8.97746
▁работу	-8.97963
▁основе	-8.98111
▁вполне	-8.98233
ель	-8.98346
▁культуры	-8.98366
тер	-8.98372
▁которым	-8.98411
▁мог	-8.99126
▁всю	-8.99396
▁ней	-8.99399
▁состав	-8.99552
▁срок	-8.99583
же	-8.99631
▁этому	-8.99634
▁полностью	-8.99787
b	-8.99857
▁новый	-9.00199
мен	-9.00474
5	-9.006
▁роль	-9.00732
▁нельзя	-9.00752
▁населения	-9.01119
▁пол	-9.01338
▁наибол	-9.01376
нов	-9.01432
бер	-9.01603
▁находится	-9.017
ца	-9.01916
▁действительно	-9.02017
нии	-9.02034
ёт	-9.02056
▁стать	-9.02084
со	-9.02151
щ	-9.02252
Ф	-9.02339
▁возможности	-9.02502
l	-9.02532
▁делать	-9.02543
таки	-9.0278
▁само	-9.02955
▁%	-9.02976
▁участие	-9.03211
▁меньше	-9.03224
▁ж	-9.03319
▁имеют	-9.03702
▁гор	-9.03845
▁пред	-9.03888
▁2011	-9.04049
▁13	-9.04099
кр	-9.04291
▁дней	-9.04309
▁условиях	-9.04452
мы	-9.04473
ками	-9.04497
▁начале	-9.04545
▁быстро	-9.04551
▁считает	-9.04678
▁внимание	-9.04902
▁Таким	-9.04989
од	-9.04993
оз	-9.05043
▁компания	-9.05107
▁многих	-9.05231
▁некоторые	-9.05271
▁данным	-9.05495
▁самым	-9.05729
изм	-9.05735
▁целом	-9.05794
▁хо	-9.05934
ний	-9.05946
▁пре	-9.06151
ешь	-9.06165
▁счет	-9.06444
▁программы	-9.06871
▁ответ	-9.06893
▁мнению	-9.06919
мер	-9.0693
▁марта	-9.06956
▁пишет	-9.06994
▁происходит	-9.07146
ики	-9.07177
ён	-9.0741
ур	-9.07454
▁безопасности	-9.07568
ском	-9.07639
▁19	-9.07656
▁Также	-9.07944
▁затем	-9.07953
ров	-9.08233
▁отношения	-9.0833
▁Например	-9.08582
▁зрения	-9.08654
▁помощью	-9.08662
▁постоянно	-9.09064
▁самого	-9.09194
▁смерти	-9.09314
ци	-9.0952
ился	-9.09786
▁обычно	-9.09826
ск	-9.09893
бы	-9.10014
▁точки	-9.10028
C	-9.1018
чат	-9.10256
▁система	-9.10529
ек	-9.10534
▁слишком	-9.10702
▁25	-9.10732
er	-9.10941
▁ранее	-9.11006
▁характер	-9.1118
d	-9.11226
▁2009	-9.11356
▁прямо	-9.11385
P	-9.1163
▁процесс	-9.11649
▁силу	-9.12077
▁пост	-9.12124
▁C	-9.12188
под	-9.12212
▁проекта	-9.12247
ится	-9.12373
ис	-9.124
▁февраля	-9.12402
▁января	-9.12402
▁последние	-9.12402
m	-9.12596
▁данных	-9.12609
▁мере	-9.12656
▁новой	-9.1278
ще	-9.1297
▁иногда	-9.13178
▁цен	-9.13366
▁законодательств	-9.13368
си	-9.13395
▁вам	-9.13594
com	-9.13852
▁получил	-9.13899
лы	-9.14064
лов	-9.14153
гу	-9.14168
▁I	-9.14245
ному	-9.14499
▁точно	-9.14561
▁Его	-9.14587
▁куда	-9.14918
▁никто	-9.14928
▁движения	-9.15274
▁работать	-9.15444
▁вид	-9.1555
▁выше	-9.15665
его	-9.1594
▁труда	-9.16003
▁июня	-9.16011
▁позволяет	-9.1602
▁закона	-9.16026
▁большой	-9.16153
▁работа	-9.16286
▁рамках	-9.16373
▁месту	-9.16395
ат	-9.16473
▁прежде	-9.16495
▁сильно	-9.16651
бл	-9.16669
Л	-9.16732
▁некоторых	-9.16742
▁21	-9.16936
вал	-9.16958
▁российских	-9.17033
ющих	-9.17047
▁Ш	-9.17244
лу	-9.17309
▁говорить	-9.17389
▁разных	-9.17469
▁примерно	-9.17669
▁искусства	-9.17736
▁The	-9.17778
▁настоящее	-9.17857
▁партии	-9.17965
▁общества	-9.18049
▁жил	-9.18085
Е	-9.1819
▁Под	-9.18281
▁минут	-9.18535
мо	-9.18673
ум	-9.18814
▁Германии	-9.18989
▁22	-9.19055
▁станет	-9.1916
▁сети	-9.19298
»).	-9.19428
▁2008	-9.19498
чен	-9.19631
пи	-9.19675
▁уровня	-9.19744
ман	-9.19864
▁P	-9.2001
▁нашей	-9.20131
ает	-9.20224
▁исследования	-9.20259
c	-9.20447
▁условия	-9.20523
▁СМИ	-9.20569
8	-9.20634
▁ходе	-9.20694
▁э	-9.2071
▁вокруг	-9.20722
▁сколько	-9.2077
раз	-9.20862
▁декабря	-9.20894
▁отношении	-9.20894
▁тебя	-9.20894
▁снова	-9.20935
▁З	-9.2117
ями	-9.21171
дер	-9.21255
▁Суд	-9.21309
▁суда	-9.2138
▁государственной	-9.21415
▁налогов	-9.21882
▁уровне	-9.21918
▁той	-9.22032
место	-9.22177
▁положения	-9.22197
ел	-9.22387
▁закон	-9.22535
▁фильм	-9.22596
▁имя	-9.22604
▁своё	-9.22626
g	-9.22663
p	-9.22743
▁опыт	-9.22788
▁апреля	-9.22839
▁пути	-9.22848
▁Согласн	-9.22856
ъ	-9.22862
▁годов	-9.22896
▁сих	-9.22921
▁правительства	-9.22928
▁др	-9.22939
▁...	-9.2302
зи	-9.23034
▁доме	-9.23058
▁пять	-9.23106
▁самое	-9.23161
▁группа	-9.23177
▁дел	-9.23182
▁кон	-9.23236
▁получить	-9.23258
▁уровень	-9.23262
▁Хотя	-9.23271
гр	-9.23335
▁пользователей	-9.23358
▁мест	-9.23427
сколько	-9.23638
▁относительно	-9.23679
ид	-9.23898
се	-9.23982
▁составляет	-9.24062
▁самой	-9.24111
▁использовать	-9.24193
▁вопросы	-9.24267
▁становится	-9.24425
ировать	-9.24506
ём	-9.24572
▁свое	-9.24727
7	-9.24874
▁глава	-9.25064
▁одном	-9.252
▁книг	-9.25281
ё	-9.25704
▁специально	-9.2573
6	-9.25848
▁ди	-9.25887
▁объекта	-9.25922
▁50	-9.25929
иться	-9.26015
▁СССР	-9.26072
ила	-9.26158
▁число	-9.2616
▁чрезвычайно	-9.26342
▁Федеральн	-9.26476
▁вдруг	-9.26849
▁Со	-9.26966
ников	-9.26992
f	-9.27034
▁Президент	-9.27087
ают	-9.27098
ряд	-9.27149
цев	-9.27213
▁удалось	-9.2726
рав	-9.27269
▁сил	-9.27296
▁денег	-9.27669
▁существует	-9.2788
▁народ	-9.27996
ика	-9.28011
ими	-9.28051
су	-9.28117
▁100	-9.28149
▁кажется	-9.28205
▁весь	-9.28299
ды	-9.28424
ед	-9.2852
вин	-9.28884
▁впервые	-9.28914
▁2012	-9.29051
▁давно	-9.29227
▁четыре	-9.29364
▁задачи	-9.29424
▁:)	-9.29846
бо	-9.29919
▁работ	-9.29937
дов	-9.29942
▁правило	-9.29976
▁лицо	-9.30118
▁значит	-9.30129
▁знаю	-9.30163
▁различных	-9.30216
▁2007	-9.30263
▁долго	-9.30315
▁4.	-9.30417
▁Де	-9.3074
▁работе	-9.31026
▁конца	-9.31069
▁весьма	-9.31166
▁название	-9.31283
род	-9.31334
▁помощи	-9.31451
▁иметь	-9.31468
▁24	-9.31489
▁ситуации	-9.3188
A	-9.31921
▁свет	-9.31962
▁действий	-9.32312
▁Эти	-9.3235
▁финансов	-9.32397
▁имени	-9.32605
▁Ч	-9.32651
▁октября	-9.32744
▁данные	-9.33022
▁сентября	-9.33179
▁неё	-9.33286
хо	-9.33352
▁начал	-9.33497
▁довольно	-9.33616
▁ре	-9.3362
ща	-9.3369
▁процессе	-9.3388
ника	-9.33886
▁чуть	-9.34038
▁сообщил	-9.34064
▁силы	-9.34074
▁Иваныч	-9.34208
▁дом	-9.34258
▁такая	-9.34281
▁воды	-9.34412
▁Мо	-9.34561
▁объектов	-9.34632
▁та	-9.34705
ации	-9.34794
ска	-9.34872
▁программ	-9.34898
▁Впрочем	-9.34937
▁дальше	-9.34937
▁говорят	-9.35048
▁пяти	-9.35061
▁могли	-9.35075
▁Нет	-9.35285
нь	-9.35382
▁значение	-9.35382
▁случаях	-9.35493
en	-9.35528
▁город	-9.35557
▁органов	-9.35619
▁изменения	-9.35673
▁скорее	-9.35845
!»	-9.35897
▁глаза	-9.35931
▁Есть	-9.36017
▁развитие	-9.36053
овые	-9.36136
▁решений	-9.36277
▁2006	-9.3629
▁июля	-9.36292
▁миллионов	-9.36359
скую	-9.365
▁речь	-9.36564
жен	-9.36714
▁первого	-9.36753
▁M	-9.37003
▁каждого	-9.3718
рен	-9.37188
▁Сегодня	-9.37284
▁премьер	-9.37343
▁сами	-9.37497
▁наши	-9.3764
англ	-9.37775
▁наших	-9.3785
нут	-9.37959
тра	-9.38002
▁первую	-9.38091
▁Х	-9.38142
▁проблем	-9.38254
▁Ли	-9.38295
D	-9.38357
▁благодаря	-9.3855
зы	-9.38637
▁язык	-9.38678
▁Ко	-9.38684
▁невозможно	-9.38772
▁слово	-9.38784
▁социальной	-9.38924
▁систему	-9.38936
▁нескольких	-9.3901
▁орган	-9.39015
▁немного	-9.39354
вод	-9.39466
читайте	-9.39482
▁модели	-9.39679
ним	-9.3978
ng	-9.39803
сп	-9.39815
▁производства	-9.39941
ющего	-9.39959
▁легко	-9.40022
w	-9.40028
▁значительно	-9.40186
▁ними	-9.40377
M	-9.40444
us	-9.40444
▁Теперь	-9.40451
сы	-9.40457
▁месяц	-9.40458
▁поводу	-9.40516
▁любой	-9.40536
▁представляет	-9.40655
▁Эта	-9.40725
▁самый	-9.4091
▁воз	-9.40961
▁кроме	-9.41021
▁отметил	-9.41085
▁роман	-9.41217
▁законом	-9.4131
▁зависимости	-9.41347
▁Facebook	-9.41371
▁Российск	-9.41409
▁российской	-9.41443
ней	-9.41532
al	-9.41774
▁согласно	-9.41859
▁мер	-9.41936
▁могу	-9.42023
▁F	-9.42071
кор	-9.42106
▁основн	-9.4216
▁кого	-9.42299
▁вида	-9.42299
▁цитирует	-9.42299
▁средства	-9.42306
▁тебе	-9.42313
▁странах	-9.42332
▁[	-9.42392
▁рода	-9.42656
▁ЕС	-9.42686
ились	-9.42702
▁пресс	-9.42803
▁своими	-9.42817
▁женщины	-9.43145
▁смысле	-9.43187
мимо	-9.43256
▁касается	-9.43274
ское	-9.43346
▁говорил	-9.43476
нию	-9.43485
ar	-9.43524
▁ну	-9.43527
ски	-9.43557
▁ст	-9.43676
▁настоящего	-9.43739
▁евро	-9.43741
▁работает	-9.43891
▁40	-9.43987
▁главы	-9.44006
▁считают	-9.44042
k	-9.44097
▁раньше	-9.44225
▁официально	-9.44244
]	-9.44391
▁(19	-9.44555
▁качества	-9.44632
вар	-9.44761
пер	-9.44786
▁образования	-9.44802
▁Всё	-9.44818
▁км	-9.4494
ич	-9.44954
L	-9.44983
тро	-9.45035
ели	-9.45086
▁семьи	-9.45148
9	-9.45182
▁Напомним	-9.45203
▁Европы	-9.45203
▁каких	-9.45607
▁L	-9.45667
▁положение	-9.45677
▁внутри	-9.45694
▁форме	-9.45703
▁требования	-9.45778
▁состояние	-9.45787
▁деятельность	-9.46023
▁большинство	-9.46053
▁Этот	-9.46174
▁использования	-9.46209
▁Или	-9.46212
▁Сейчас	-9.46289
▁ма	-9.46449
▁видео	-9.466
ева	-9.46707
▁текст	-9.46723
▁)	-9.46852
T	-9.46862
▁Ни	-9.46868
▁23	-9.46998
▁руки	-9.47005
▁другим	-9.47037
▁р	-9.47141
▁общем	-9.47174
▁Христа	-9.47188
▁вновь	-9.47191
ники	-9.47213
Х	-9.47249
ющие	-9.47416
▁языка	-9.47572
▁городе	-9.47604
▁абсолютно	-9.47615
re	-9.47647
▁далеко	-9.477
▁Ка	-9.47762
I	-9.47866
▁другими	-9.47959
);	-9.4799
▁степени	-9.48196
▁наконец	-9.48196
an	-9.48208
Э	-9.48208
▁будем	-9.48209
▁столь	-9.48218
▁создания	-9.48241
▁сама	-9.48272
▁целью	-9.48324
▁28	-9.48332
▁правил	-9.48433
▁знает	-9.48448
▁активно	-9.48612
O	-9.48627
▁Россию	-9.48705
▁мой	-9.48936
ция	-9.48988
▁систем	-9.49149
▁слов	-9.49172
▁рок	-9.49177
▁видов	-9.49209
▁одну	-9.49214
овых	-9.49278
▁Ю	-9.49359
лет	-9.49384
твор	-9.49524
▁ф	-9.49634
▁помещения	-9.49649
▁полу	-9.49726
По	-9.49808
▁дети	-9.49811
▁включая	-9.49878
▁переход	-9.49884
▁необходимы	-9.49914
йте	-9.49943
▁спорта	-9.49985
▁бюджет	-9.50008
ран	-9.5007
вид	-9.50097
»)	-9.50105
нее	-9.50244
▁бизнес	-9.50267
▁управления	-9.50277
▁Дмитрий	-9.50296
▁гражданина	-9.50297
▁участников	-9.50313
▁образ	-9.50528
▁Вас	-9.50621
▁идёт	-9.50762
чин	-9.50765
▁собственности	-9.50784
ing	-9.5079
▁соответствующе	-9.50815
аль	-9.50898
▁основном	-9.50902
▁столько	-9.50904
▁род	-9.51003
▁Сам	-9.51041
10	-9.51143
▁языке	-9.51149
ала	-9.51223
▁опять	-9.51281
▁экономики	-9.51284
▁принято	-9.51371
например	-9.51396
▁D	-9.51401
▁факт	-9.51487
▁друга	-9.51574
▁анти	-9.51737
00	-9.5178
ез	-9.51786
▁августа	-9.51804
▁создать	-9.51847
ью	-9.51929
▁одновременно	-9.51935
▁каким	-9.52102
▁найти	-9.5224
▁26	-9.52263
▁Ре	-9.52284
вед	-9.52286
▁церкви	-9.52368
▁V	-9.52371
тся	-9.52385
▁клуб	-9.52427
еж	-9.52456
▁правда	-9.52581
▁формы	-9.52641
▁Мне	-9.52859
как	-9.5294
▁автор	-9.52962
стью	-9.52977
▁говоря	-9.53062
in	-9.53104
▁лично	-9.53157
▁сторону	-9.53214
ир	-9.53236
▁своём	-9.53247
▁ситуация	-9.53287
▁л	-9.53348
▁B	-9.53355
▁ноября	-9.53391
▁состоянии	-9.53391
▁нём	-9.53401
▁животных	-9.53415
кс	-9.5357
бу	-9.53611
▁Ж	-9.53646
▁ту	-9.53744
▁G	-9.53766
ге	-9.53793
фи	-9.53807
▁часа	-9.53866
данный	-9.54001
▁женщин	-9.54107
рис	-9.54133
▁способ	-9.54435
▁E	-9.54544
овать	-9.54565
▁общей	-9.5472
лл	-9.54787
изма	-9.54895
ация	-9.54896
▁корреспондента	-9.54911
▁кризис	-9.55077
вший	-9.55165
вшего	-9.55171
оль	-9.55271
▁результаты	-9.55385
▁of	-9.55453
▁Пол	-9.5552
▁российского	-9.55582
тов	-9.5565
ёр	-9.55715
бор	-9.55766
▁Кто	-9.55889
▁отличие	-9.55986
▁миграционн	-9.56094
▁отсутствие	-9.56119
▁физической	-9.56136
▁сделал	-9.56138
▁Только	-9.56179
▁роли	-9.56436
▁Конституции	-9.56644
▁совместно	-9.56741
вор	-9.56763
h	-9.5677
вшихся	-9.56785
▁N	-9.57028
ющая	-9.57205
▁вроде	-9.57233
лин	-9.57343
▁Ц	-9.57463
ья	-9.57486
▁мировой	-9.57494
нет	-9.5751
▁правительство	-9.57645
▁ш	-9.57684
вшие	-9.57697
▁самые	-9.57748
▁правила	-9.57929
▁рост	-9.57983
▁прошлом	-9.58076
▁пользу	-9.58243
▁связан	-9.58329
ест	-9.58442
ским	-9.586
▁процесса	-9.58775
▁позиции	-9.58872
▁личности	-9.58917
▁цели	-9.59037
or	-9.59201
ющий	-9.59229
▁использование	-9.59356
▁рынка	-9.5937
▁порядка	-9.59439
▁жителей	-9.59441
▁Здесь	-9.59517
▁T	-9.5976
▁фильма	-9.59772
▁Сергей	-9.5979
▁начали	-9.59831
ус	-9.59912
ишь	-9.59963
▁изделия	-9.60006
▁пришлось	-9.60012
дин	-9.60049
ите	-9.60103
сс	-9.60217
▁обязательно	-9.60228
▁никак	-9.60383
ания	-9.60413
▁создан	-9.60435
▁стр	-9.60485
▁среды	-9.6058
▁частью	-9.6058
▁главным	-9.60647
▁мол	-9.60722
▁иностранных	-9.60753
▁2005	-9.60793
▁Частно	-9.60823
▁доступ	-9.60847
ден	-9.61073
▁меры	-9.61091
▁Ещё	-9.61152
▁организаций	-9.61152
▁социальных	-9.61152
▁Microsoft	-9.61165
▁вовсе	-9.61183
▁никаких	-9.61202
▁Ар	-9.61213
▁па	-9.61246
▁рядом	-9.61277
▁версии	-9.61284
▁плат	-9.61341
фа	-9.61342
▁представитель	-9.61399
st	-9.61523
том	-9.61563
▁Тогда	-9.6173
▁отношений	-9.6173
▁информацию	-9.61733
▁теле	-9.61831
▁ниже	-9.61848
стве	-9.61946
▁27	-9.62053
данного	-9.62183
ье	-9.62204
▁наш	-9.62227
▁Японии	-9.62311
▁продукции	-9.62315
▁поле	-9.62392
▁чём	-9.62415
ch	-9.62421
▁голос	-9.62427
▁общего	-9.62467
▁создание	-9.62501
▁понять	-9.62542
вшийся	-9.62566
тур	-9.62722
илась	-9.62727
▁предусмотренны	-9.62829
▁дороги	-9.62835
▁Кор	-9.6287
▁зависит	-9.62902
▁Михаил	-9.62907
▁Путин	-9.63057
рез	-9.63075
▁годах	-9.63245
чит	-9.63321
▁результат	-9.63414
z	-9.63464
▁энергии	-9.63484
▁Именно	-9.63494
▁трудно	-9.63575
▁соответствующи	-9.63599
нд	-9.63614
E	-9.63624
▁правильно	-9.63673
чно	-9.63875
ари	-9.63879
шен	-9.63903
▁учёт	-9.64008
”	-9.64076
ятся	-9.64077
▁иначе	-9.6408
др	-9.64082
▁обеспечения	-9.64135
стер	-9.64275
▁итоге	-9.64295
см	-9.64312
▁выбор	-9.64473
▁интервью	-9.64671
▁Франции	-9.64677
▁будто	-9.64696
▁движение	-9.64717
▁делает	-9.64729
▁Ла	-9.64736
ции	-9.64797
▁автора	-9.64875
▁готовы	-9.64876
уж	-9.65219
▁ради	-9.65222
вшись	-9.65237
▁месяца	-9.65242
▁множество	-9.6527
▁вынужден	-9.65331
▁адрес	-9.65367
нос	-9.65405
З	-9.65446
чу	-9.65475
▁статус	-9.65623
шу	-9.65644
▁разные	-9.65655
▁состоит	-9.65677
▁Северн	-9.65687
▁Европе	-9.65804
▁the	-9.65873
▁непосредственно	-9.65889
▁означает	-9.6592
▁Там	-9.65972
ях	-9.6601
▁писал	-9.66111
▁результатов	-9.66125
▁кому	-9.66216
▁вариант	-9.66224
▁раза	-9.66245
▁решил	-9.66262
▁машин	-9.66424
▁исключением	-9.66556
▁времена	-9.66613
▁явно	-9.66613
▁получили	-9.66638
▁Даж	-9.66653
юсь	-9.66688
▁готов	-9.66845
it	-9.66887
▁случай	-9.66934
▁скоро	-9.66968
вали	-9.66991
▁которому	-9.6701
ках	-9.67037
▁настоящим	-9.67088
▁горазд	-9.67089
▁реализации	-9.67089
▁первые	-9.6709
▁Более	-9.671
▁Бел	-9.67109
▁Раз	-9.67175
▁принять	-9.67186
▁групп	-9.67202
▁K	-9.67213
▁налога	-9.67271
on	-9.67275
▁Москва	-9.67358
▁первом	-9.6738
▁бес	-9.67456
ющиеся	-9.6751
▁стар	-9.67548
ана	-9.67563
▁называют	-9.67607
жу	-9.6766
▁цвет	-9.67754
▁женщина	-9.67963
▁света	-9.68133
▁идет	-9.68161
▁перевод	-9.68231
чив	-9.68291
▁теории	-9.68319
▁НАТО	-9.68319
▁200	-9.68393
Мы	-9.68509
▁свободы	-9.68512
▁проведения	-9.68515
▁игры	-9.68532
is	-9.68549
средством	-9.68581
▁интерес	-9.68589
▁пар	-9.68676
?»	-9.68692
▁сайте	-9.68702
▁дать	-9.68711
гла	-9.68779
▁обязан	-9.68851
▁районе	-9.68879
▁Ведь	-9.68942
▁условий	-9.68978
▁естественно	-9.69013
▁момента	-9.69038
B	-9.69076
▁товаров	-9.69079
▁первых	-9.69089
▁проблема	-9.69132
▁жить	-9.69237
ред	-9.69335
рон	-9.69483
▁участка	-9.69557
▁порядок	-9.69565
▁временем	-9.69593
▁сторона	-9.69635
▁Кон	-9.69664
▁2004	-9.697
▁размеров	-9.69714
ющей	-9.69737
▁случаев	-9.69783
▁Ди	-9.69923
▁совет	-9.69969
▁назвал	-9.7008
▁значения	-9.70194
▁рынке	-9.70194
N	-9.70201
вшая	-9.70213
▁счёт	-9.70271
▁знаком	-9.70293
ант	-9.70295
▁договор	-9.70441
▁всему	-9.70446
▁тела	-9.70495
▁системе	-9.70501
▁хочет	-9.70597
▁органы	-9.70758
нс	-9.70802
▁Великобритании	-9.70827
▁представители	-9.70828
▁нашего	-9.70972
стей	-9.71377
▁дни	-9.71402
▁взгляд	-9.71423
▁функции	-9.71464
▁Гриша	-9.71464
▁вещи	-9.71496
▁запрет	-9.71531
▁называется	-9.71534
ница	-9.71543
▁свойства	-9.71552
зов	-9.71635
кры	-9.7179
▁мысли	-9.71851
▁театра	-9.72016
це	-9.72066
▁сторон	-9.72072
▁причин	-9.7208
▁акции	-9.7211
at	-9.72186
▁чаще	-9.72239
▁сложно	-9.72403
▁плохо	-9.72496
кин	-9.72677
▁площади	-9.7275
▁исследований	-9.72762
▁н	-9.72784
▁двумя	-9.7283
лат	-9.72862
▁29	-9.73041
кон	-9.73142
▁Бо	-9.73179
▁недели	-9.732
▁Храма	-9.73241
первых	-9.73244
▁выборах	-9.73257
▁трёх	-9.73301
▁трех	-9.73395
▁РБК	-9.73399
▁другого	-9.73426
▁необходимости	-9.73501
▁приходится	-9.73539
зе	-9.73718
te	-9.73749
▁исключительно	-9.73968
стоя	-9.74011
▁состояния	-9.74053
▁земле	-9.74053
▁бу	-9.74071
▁представления	-9.74075
▁основании	-9.74076
вести	-9.74081
▁провести	-9.74124
▁Почему	-9.74155
▁позже	-9.74155
▁Та	-9.74256
▁контроль	-9.74293
ri	-9.74486
▁отдельных	-9.74522
▁газ	-9.7455
(	-9.74567
На	-9.74649
▁ночь	-9.74659
▁матери	-9.74678
▁Украине	-9.74711
▁последнее	-9.74711
▁Среди	-9.74712
▁директор	-9.74717
▁крайне	-9.74718
▁преступления	-9.74759
▁хотел	-9.74765
▁компаний	-9.74794
▁цены	-9.74822
ировал	-9.74875
▁класса	-9.74891
▁разговор	-9.74923
▁словами	-9.74961
▁мнение	-9.75095
▁крест	-9.75245
▁услуг	-9.75268
кий	-9.75347
▁земельн	-9.75402
▁находятся	-9.75409
▁час	-9.75471
фе	-9.75484
▁H	-9.75496
el	-9.75518
▁другое	-9.75578
▁фактически	-9.75579
▁понятно	-9.75651
▁окончательно	-9.75662
▁труд	-9.7568
▁государство	-9.75712
▁народа	-9.75779
▁далее	-9.75806
▁кольца	-9.75878
▁внешне	-9.75938
▁Иванов	-9.76009
▁настоящей	-9.7604
▁месяцев	-9.76081
ra	-9.76123
▁отказ	-9.76295
▁:	-9.76443
нул	-9.76461
▁широко	-9.76477
мент	-9.76504
▁поиска	-9.76546
остью	-9.76589
ление	-9.76703
▁стоимость	-9.76742
▁Нью	-9.76864
▁Казахстан	-9.76886
▁список	-9.76896
▁руку	-9.76958
цен	-9.77039
▁Потому	-9.7704
▁данной	-9.77042
▁Джон	-9.7712
▁другом	-9.77163
0	-9.77201
▁организация	-9.77205
▁союз	-9.77372
!..	-9.77379
▁ООН	-9.77386
▁людям	-9.77386
▁строительства	-9.77386
▁сфере	-9.77393
▁отметить	-9.77394
▁оказался	-9.77434
▁Правда	-9.77438
▁говорится	-9.77482
▁Марк	-9.77531
▁членов	-9.77556
▁Медведев	-9.77581
▁“	-9.77845
Ш	-9.77893
исты	-9.77931
ван	-9.77941
емся	-9.77991
▁ос	-9.78003
▁путь	-9.78071
▁цель	-9.78073
▁обязанности	-9.78084
▁буду	-9.78127
▁глаз	-9.7815
▁произошло	-9.78178
бе	-9.78286
тре	-9.78295
местного	-9.78348
▁данном	-9.78496
▁особо	-9.78528
R	-9.78564
▁нужны	-9.78576
лом	-9.78631
▁5.	-9.78662
▁первым	-9.78681
▁Александра	-9.787
▁поддержку	-9.78752
▁настолько	-9.78759
▁жив	-9.78848
▁политики	-9.78934
▁которыми	-9.79044
ице	-9.79054
▁источник	-9.79089
19	-9.79111
▁важно	-9.79124
▁виду	-9.79138
▁класс	-9.79265
▁интересно	-9.79342
▁соответственно	-9.79441
▁последний	-9.79442
тон	-9.79508
▁Один	-9.79509
рус	-9.79546
▁существенно	-9.79585
▁ч	-9.79598
▁школы	-9.79614
образ	-9.79621
▁встреча	-9.79638
▁книга	-9.7972
пар	-9.79783
▁голову	-9.79819
▁Интернет	-9.79907
▁ясно	-9.80044
аз	-9.80068
NEWS	-9.80136
▁история	-9.80136
▁количества	-9.80136
▁содержит	-9.80152
▁бюджета	-9.80176
▁защиты	-9.80194
▁Кодекса	-9.80222
▁общество	-9.80224
▁государственных	-9.8023
▁удар	-9.80446
le	-9.80501
▁чувства	-9.80578
тен	-9.80644
▁?	-9.80767
▁историю	-9.80835
▁рынок	-9.80835
▁стоимости	-9.80836
▁жительства	-9.80837
ирует	-9.80859
▁серии	-9.80866
ющихся	-9.80874
▁ответственность	-9.80879
▁Конечно	-9.80922
▁пример	-9.80956
▁подход	-9.8097
▁кокаина	-9.80972
▁Виктор	-9.81027
▁думаю	-9.81053
жив	-9.81069
рат	-9.81199
▁судом	-9.81382
=	-9.81398
▁Вам	-9.8146
▁вести	-9.81475
▁Ку	-9.81497
▁/	-9.81533
▁американских	-9.81557
▁отношение	-9.81563
▁прошлого	-9.81697
▁явля	-9.81725
50	-9.81773
es	-9.81824
▁альбом	-9.81916
АО	-9.81959
ген	-9.82118
▁помощь	-9.82128
За	-9.82234
▁форм	-9.82358
▁недавно	-9.82383
▁могла	-9.8241
▁II	-9.8244
▁интересов	-9.82443
▁документов	-9.82452
▁термин	-9.82522
▁договора	-9.8261
▁ряда	-9.82679
овал	-9.82785
дел	-9.82858
истов	-9.82901
30	-9.82926
▁писать	-9.82961
▁связь	-9.82964
20	-9.82964
▁неделю	-9.82965
▁уверен	-9.82976
▁своем	-9.83027
▁Может	-9.83032
Не	-9.83083
▁построен	-9.83094
▁смысл	-9.83155
▁текстов	-9.83183
▁Чтоб	-9.83207
кал	-9.83223
▁команды	-9.83244
сон	-9.8337
▁какое	-9.83388
▁самостоятельно	-9.83557
▁Беларусь	-9.83682
▁Игнатий	-9.83682
▁Спасителя	-9.83683
чка	-9.83689
иков	-9.83714
▁туда	-9.83731
▁Пере	-9.83778
три	-9.83808
▁текста	-9.83822
▁конкретны	-9.83897
▁используется	-9.8395
▁обо	-9.83964
▁выборов	-9.83982
ового	-9.84041
чик	-9.84215
▁чисто	-9.84331
▁Ле	-9.84397
▁минимум	-9.84407
▁регистрации	-9.84457
▁оплаты	-9.84489
вторых	-9.84495
▁программа	-9.84509
▁представителей	-9.84511
▁русской	-9.84516
нуть	-9.84629
▁первое	-9.84657
аются	-9.84682
емых	-9.84723
▁нему	-9.84887
▁Храме	-9.84981
ям	-9.84991
▁посвящен	-9.85009
▁иных	-9.85023
иль	-9.85047
▁центр	-9.85059
▁пункта	-9.85085
▁отношению	-9.85137
▁отца	-9.85151
▁Можно	-9.85218
▁задача	-9.85218
дя	-9.85265
▁кол	-9.85291
ием	-9.85333
▁Ба	-9.85435
▁торгов	-9.85437
▁влияние	-9.85474
▁анализ	-9.8548
▁структуры	-9.85489
Некоторые	-9.85506
▁режим	-9.85568
Ч	-9.8573
▁Их	-9.85738
государственного	-9.85822
▁земли	-9.85872
▁Apple	-9.85873
▁главное	-9.85904
▁получения	-9.85937
▁руководство	-9.85989
▁История	-9.86009
▁считать	-9.86024
енко	-9.86028
▁вправе	-9.86057
жде	-9.86235
рас	-9.86244
▁срока	-9.86252
▁0	-9.86262
сер	-9.86269
▁названием	-9.86309
ян	-9.8631
▁Суда	-9.86323
▁центра	-9.86354
▁обратно	-9.86446
▁бур	-9.8648
▁фоне	-9.86495
▁Вер	-9.86501
▁постепенно	-9.86613
▁числа	-9.86613
▁целях	-9.86619
▁предложил	-9.86644
▁Москву	-9.86651
▁журнал	-9.86682
▁органа	-9.86689
▁получила	-9.86759
▁форма	-9.86964
пре	-9.87013
▁Уже	-9.87107
ало	-9.87111
▁обмена	-9.87124
▁федеральным	-9.87158
ству	-9.87271
▁Стар	-9.87301
▁последних	-9.87359
▁театр	-9.87364
▁песни	-9.87369
▁2014	-9.87373
▁новую	-9.87376
▁оказалось	-9.87386
аться	-9.87395
▁обмен	-9.87428
▁памяти	-9.87471
▁материалов	-9.87538
▁знаете	-9.87736
▁Остер	-9.87763
щи	-9.87781
▁Те	-9.87828
Об	-9.87899
▁новое	-9.87905
▁некоторо	-9.87934
▁составил	-9.8795
▁установленны	-9.88011
▁считается	-9.88015
▁план	-9.88064
▁событий	-9.88111
▁группе	-9.88153
▁обществе	-9.88162
▁заметил	-9.88173
▁способны	-9.88326
▁вышел	-9.88363
▁Глава	-9.88365
▁наличие	-9.88368
▁Бог	-9.88389
дор	-9.88471
сел	-9.88476
▁семье	-9.88577
▁центре	-9.88683
▁Мин	-9.88698
▁власть	-9.88707
▁символ	-9.88756
▁программу	-9.8885
▁столицы	-9.88869
▁внимания	-9.88869
▁колебаний	-9.88869
▁Андерсон	-9.88873
▁акций	-9.88874
▁Алексей	-9.88901
▁W	-9.88909
▁Международн	-9.88914
▁з	-9.8896
▁отец	-9.88992
▁общественного	-9.89023
-1	-9.89032
▁бед	-9.89039
ун	-9.89056
▁общественных	-9.89109
нные	-9.89138
▁главный	-9.89175
ed	-9.89175
▁судна	-9.89177
ват	-9.89189
▁моей	-9.89224
▁бывает	-9.89235
▁пара	-9.89281
▁лидер	-9.89288
▁Бар	-9.89301
▁машины	-9.89384
▁риск	-9.89562
▁каждой	-9.89632
▁принятия	-9.89701
вать	-9.89709
▁взять	-9.89742
▁книге	-9.89747
▁десять	-9.89769
▁назначен	-9.89785
▁актов	-9.89807
▁тему	-9.89836
▁брат	-9.89942
▁службы	-9.90016
▁никакого	-9.9002
▁брата	-9.90033
▁вопросов	-9.90061
▁спор	-9.90074
кам	-9.90143
▁приводит	-9.90148
▁Закон	-9.90162
ении	-9.903
она	-9.90352
▁поп	-9.90363
ается	-9.90396
▁людьми	-9.90401
▁обеспечить	-9.90407
▁журнала	-9.90408
▁смогут	-9.90413
▁шесть	-9.90536
вен	-9.90588
гер	-9.90615
▁улице	-9.90735
▁рассказал	-9.9087
▁2000	-9.9088
словно	-9.90884
▁Ти	-9.90919
уш	-9.90934
▁поиск	-9.91028
▁Ха	-9.91077
ять	-9.91078
▁события	-9.911
▁миров	-9.91128
▁YouTube	-9.91176
▁наоборот	-9.91176
▁требований	-9.91176
▁записи	-9.91176
▁Санкт	-9.91177
▁хочу	-9.91192
ание	-9.91212
ируют	-9.91222
▁издания	-9.91259
▁номер	-9.9129
▁сотрудников	-9.9129
▁Второй	-9.91363
▁изменений	-9.91396
▁поведения	-9.91421
▁специальны	-9.91462
зор	-9.91492
мин	-9.91632
тр	-9.91652
▁метров	-9.91761
▁дал	-9.91777
▁местах	-9.91832
▁Возможно	-9.91845
▁недо	-9.91933
▁ответственности	-9.91968
мир	-9.91975
▁своему	-9.91978
▁имел	-9.91995
▁спас	-9.92014
▁голосов	-9.92048
▁произведения	-9.92124
▁сбор	-9.92155
▁интернете	-9.92198
форм	-9.9224
▁минимальны	-9.92259
▁объект	-9.92544
▁сын	-9.92667
▁размере	-9.92683
▁традиции	-9.92745
▁заседании	-9.92746
▁Китая	-9.92746
▁премии	-9.9275
шь	-9.92789
инг	-9.93007
зу	-9.93034
▁благо	-9.93114
▁указанны	-9.93145
...»	-9.9318
▁принял	-9.93235
дав	-9.93267
обра	-9.93367
▁сайт	-9.93464
▁коллектив	-9.93466
▁муж	-9.93494
40	-9.935
ался	-9.93505
▁современны	-9.93514
12	-9.93535
▁письма	-9.93539
▁литературы	-9.93539
▁следующие	-9.93549
▁объявил	-9.93614
▁русского	-9.9363
▁кстати	-9.93664
▁российски	-9.93691
▁редко	-9.93732
▁Си	-9.93881
▁задач	-9.93911
вес	-9.93985
▁31	-9.94033
ера	-9.94049
▁видно	-9.94105
▁какую	-9.94107
▁начинает	-9.94113
▁ста	-9.94187
▁какая	-9.94225
▁российский	-9.94233
▁основных	-9.94321
▁Англии	-9.94339
▁оценки	-9.94339
▁применения	-9.94347
▁проектирования	-9.94348
▁информация	-9.94348
▁начало	-9.94354
▁спросил	-9.94358
рос	-9.94392
▁начать	-9.94437
▁ограничения	-9.94446
чет	-9.945
▁резко	-9.94507
▁участия	-9.94516
▁направления	-9.94552
▁страна	-9.94555
ющее	-9.94604
▁хочется	-9.94642
▁Кар	-9.94683
▁вывод	-9.94718
▁глубоко	-9.94783
ог	-9.94794
▁комплекс	-9.94836
▁интересы	-9.94876
▁семи	-9.94979
▁таможенн	-9.95092
▁признан	-9.95098
▁читать	-9.95146
▁содержания	-9.95151
▁идеи	-9.95204
▁делу	-9.95262
▁действие	-9.95267
▁особенности	-9.95281
▁направлен	-9.95304
Ц	-9.95305
▁называем	-9.95309
▁2002	-9.9538
▁находя	-9.95403
▁лес	-9.95469
▁выход	-9.95536
▁таком	-9.95569
▁появи	-9.95598
▁индивидуально	-9.9561
▁шести	-9.95626
▁ум	-9.95631
▁современного	-9.95654
▁метод	-9.95654
▁взрыв	-9.95669
▁Конституционн	-9.95915
x	-9.95938
▁последствия	-9.95958
▁протяжении	-9.95958
▁написал	-9.95972
▁Борис	-9.95977
▁составе	-9.96
▁провел	-9.96001
▁относится	-9.96025
▁студентов	-9.96102
▁подчеркнул	-9.96159
▁тур	-9.96172
▁Ма	-9.96175
шки	-9.96196
▁современно	-9.96237
шей	-9.96256
сен	-9.96286
рь	-9.96295
рож	-9.96314
▁сеть	-9.96315
▁острова	-9.96349
▁добавил	-9.96393
нес	-9.96437
▁прошло	-9.96448
▁собак	-9.96475
▁цвета	-9.96508
жда	-9.96659
▁Национальн	-9.9667
▁Дин	-9.96718
▁фонда	-9.96725
▁родителей	-9.96783
▁высоко	-9.96826
емые	-9.96875
▁зачем	-9.96939
▁человеком	-9.96957
▁литературн	-9.9699
ует	-9.96992
ic	-9.97001
▁границы	-9.97009
кар	-9.97058
гор	-9.97139
овая	-9.97185
пу	-9.97203
▁мои	-9.97257
дар	-9.97265
▁сложи	-9.97332
▁хотят	-9.97428
▁норм	-9.97471
▁поля	-9.97538
▁сначала	-9.97607
▁область	-9.97608
▁среду	-9.97609
▁хуже	-9.97611
▁следующий	-9.97616
▁остается	-9.97637
▁крайней	-9.97648
▁книгу	-9.97659
прежнему	-9.97697
▁тысячи	-9.97718
▁паровозов	-9.97722
▁получается	-9.97784
▁лице	-9.97799
▁Первый	-9.97824
▁современн	-9.97839
▁круг	-9.97849
▁фон	-9.97861
▁сервис	-9.97941
эн	-9.97946
вшей	-9.97948
▁искусство	-9.97967
▁статьей	-9.98098
вшейся	-9.98177
la	-9.98195
▁отмечает	-9.98197
рок	-9.9838
▁тело	-9.98425
▁Многи	-9.98438
▁причём	-9.98438
равнению	-9.98439
▁остаётся	-9.9844
▁000	-9.98446
бел	-9.9846
▁пр	-9.98469
лей	-9.98473
▁сути	-9.98479
▁музыки	-9.98543
▁крупных	-9.9858
▁Хо	-9.98592
▁ибо	-9.98613
?..	-9.98619
▁2003	-9.98622
▁рейтинг	-9.98667
▁оказывается	-9.98677
▁смотреть	-9.98678
▁J	-9.98762
▁будущем	-9.98787
▁семь	-9.98796
Еще	-9.98852
изации	-9.98866
17	-9.98915
▁500	-9.98956
▁сюжет	-9.98978
▁выборы	-9.99021
▁требует	-9.99039
▁науки	-9.99135
стан	-9.99174
сов	-9.99183
▁компьютер	-9.99221
▁полной	-9.99248
▁контроля	-9.99278
▁армии	-9.99279
▁Ранее	-9.99292
▁переговоры	-9.99319
▁радио	-9.99326
▁продолжал	-9.99469
рова	-9.99559
▁возникает	-9.9963
▁Иван	-9.99631
лит	-9.99746
▁анализа	-9.99768
▁сможет	-9.99771
▁россиян	-9.99777
▁социально	-9.99795
▁вне	-9.9984
ены	-9.99842
▁связано	-9.9987
▁знал	-9.99897
▁идея	-9.99924
▁Пока	-10.0002
лад	-10.0002
▁Самоа	-10.0009
кова	-10.001
▁вопросам	-10.0014
▁видел	-10.0016
—19	-10.0017
▁взял	-10.0019
▁игра	-10.0027
▁Ты	-10.0035
▁пакет	-10.0048
▁структур	-10.0048
▁сведения	-10.0049
▁характера	-10.0051
▁государств	-10.0052
▁возраст	-10.0055
▁пару	-10.0061
нных	-10.0064
▁семей	-10.0066
▁банк	-10.0074
▁Бер	-10.0074
▁глобальн	-10.0088
▁Ту	-10.0091
▁документ	-10.0092
ром	-10.0095
▁станции	-10.0098
▁большие	-10.0098
▁помещений	-10.0099
ес	-10.0103
овым	-10.0104
▁Очень	-10.0105
▁Га	-10.0107
▁честь	-10.0109
▁новая	-10.0116
▁лицом	-10.0117
▁устройства	-10.0119
▁социального	-10.012
ющим	-10.0122
▁га	-10.0125
пы	-10.0133
▁традиционно	-10.0134
ток	-10.0135
▁Киев	-10.0138
ню	-10.0139
кая	-10.0144
▁поведение	-10.0145
▁говорили	-10.0146
▁ТВ	-10.0153
▁русском	-10.0153
порт	-10.0155
мар	-10.0168
▁сказала	-10.0174
▁ситуацию	-10.0184
▁Россией	-10.0184
▁литературе	-10.0184
▁успех	-10.0185
▁300	-10.0185
лан	-10.0187
▁принимает	-10.0188
▁модель	-10.019
▁оказались	-10.0191
▁строительство	-10.0198
▁политической	-10.02
▁обороны	-10.0208
▁предложение	-10.0208
Ж	-10.0208
▁картины	-10.0213
▁кризиса	-10.0215
▁раздел	-10.0223
▁объём	-10.0226
▁c	-10.0231
“	-10.0232
▁выступил	-10.0233
лик	-10.0239
▁отдельно	-10.0249
жал	-10.0252
что	-10.0253
▁понимаю	-10.0254
министр	-10.0271
▁Америки	-10.0271
▁соответствует	-10.0271
▁эксплуатации	-10.0271
▁заявления	-10.0272
▁окна	-10.0273
▁Ра	-10.0274
▁параметров	-10.0276
▁иностранного	-10.0276
стран	-10.0278
▁различные	-10.0281
▁ход	-10.0291
вол	-10.0304
▁поток	-10.0308
▁судов	-10.0311
▁методы	-10.0316
▁виды	-10.0318
▁O	-10.0322
▁Гр	-10.0325
чки	-10.0335
▁тема	-10.0344
▁разве	-10.0347
нный	-10.0351
▁знать	-10.036
▁представить	-10.0361
вшиеся	-10.0361
вой	-10.0362
▁заниматься	-10.0366
▁стекло	-10.037
▁работал	-10.0379
▁производство	-10.0379
▁всеми	-10.0388
учи	-10.0393
▁ближайше	-10.0398
нер	-10.0399
▁волн	-10.0399
овый	-10.0403
▁Ро	-10.0405
реш	-10.0408
нова	-10.0409
зд	-10.0409
11	-10.0413
▁Потом	-10.0423
▁газа	-10.0439
▁Государственн	-10.0442
▁помочь	-10.0447
▁XIX	-10.0447
▁многочисленны	-10.0449
▁бесплатно	-10.0453
▁собственно	-10.0455
еш	-10.0456
▁Кстати	-10.0457
▁осуществляется	-10.0459
пор	-10.0459
▁относятся	-10.046
»),	-10.0462
▁определяется	-10.0462
▁региона	-10.0472
▁речи	-10.0484
▁отдел	-10.0486
▁праздник	-10.0486
бил	-10.0486
▁выпуск	-10.0486
▁обеспечение	-10.0489
▁высше	-10.049
G	-10.0506
▁бо	-10.051
▁писатель	-10.0536
▁якобы	-10.0537
▁сделки	-10.0537
▁первая	-10.0537
▁пределах	-10.0539
▁частей	-10.054
▁самоуправления	-10.0541
▁тип	-10.0545
▁собирается	-10.0546
▁университета	-10.0547
ило	-10.0549
▁моя	-10.0558
▁содержание	-10.0558
▁экспертов	-10.0559
▁Тут	-10.0561
▁закрыт	-10.0562
ирование	-10.0565
▁мать	-10.0566
▁десяти	-10.0569
▁министр	-10.0571
▁такую	-10.0579
ень	-10.0581
▁больших	-10.0586
▁товара	-10.059
▁очередн	-10.0596
▁эффект	-10.0606
тели	-10.0607
син	-10.0614
▁позволит	-10.062
▁человеку	-10.0624
▁оружия	-10.0627
▁вклад	-10.0629
▁впрочем	-10.0634
▁образование	-10.0635
▁представление	-10.0635
▁Ново	-10.0638
кле	-10.0638
▁позднее	-10.0645
▁Юрий	-10.0646
▁новым	-10.0651
▁намерен	-10.066
▁газета	-10.0662
ук	-10.0665
ющийся	-10.0669
▁*	-10.0672
▁успешно	-10.0679
▁примеру	-10.0682
j	-10.0687
▁массов	-10.0702
▁возрасте	-10.0702
▁Между	-10.0707
нский	-10.071
▁предмет	-10.0711
▁Италии	-10.0718
▁рождения	-10.0718
▁особы	-10.0718
мол	-10.0719
▁русских	-10.072
фр	-10.0728
люб	-10.0732
нем	-10.0734
▁определенны	-10.0737
▁вероятно	-10.074
▁газеты	-10.074
▁эксперты	-10.0755
слов	-10.0759
мор	-10.0778
▁зале	-10.0781
▁показал	-10.0788
%	-10.0794
▁необходимость	-10.0803
▁мероприятия	-10.0809
▁большое	-10.0809
▁категории	-10.0809
▁формирования	-10.081
чь	-10.081
▁буквально	-10.0811
▁остальные	-10.0812
ro	-10.0823
▁технологий	-10.0825
ена	-10.0828
▁бизнеса	-10.0832
▁R	-10.0846
▁прекрасно	-10.0847
▁расположен	-10.0849
щие	-10.0853
▁Сан	-10.0855
эй	-10.0857
▁органами	-10.086
▁определенно	-10.0868
▁Аль	-10.0877
F	-10.0887
▁мужчин	-10.089
так	-10.0892
▁пят	-10.0899
▁Pistols	-10.0902
▁ребенка	-10.0902
▁вызывает	-10.0902
▁неизвестно	-10.0906
ению	-10.0908
▁Южно	-10.0909
▁борьбы	-10.091
ur	-10.091
▁капитал	-10.0911
▁война	-10.0917
гра	-10.0918
▁середине	-10.0918
▁определение	-10.0918
акт	-10.0924
▁выбора	-10.0924
▁итогам	-10.0925
▁экс	-10.0934
рия	-10.0936
▁встречи	-10.0937
▁доктор	-10.0941
):	-10.0948
енные	-10.0949
▁занима	-10.096
чер	-10.0967
бол	-10.0971
▁профессор	-10.0972
▁обстоятельств	-10.0973
шие	-10.0984
▁независимо	-10.0994
▁воздействия	-10.0995
▁воскресенье	-10.0995
▁последнего	-10.0995
▁церковь	-10.0995
▁девушек	-10.0995
▁большая	-10.0996
▁второго	-10.0998
▁принимать	-10.0998
▁максимально	-10.1
▁фигур	-10.1
▁военных	-10.1004
▁заключения	-10.1005
▁казалось	-10.1009
▁идей	-10.1014
няя	-10.102
сси	-10.102
▁утра	-10.1022
▁масса	-10.103
▁70	-10.1033
▁Без	-10.1036
▁документы	-10.104
▁версия	-10.1041
▁нормы	-10.1042
▁руководител	-10.1045
▁s	-10.1047
енно	-10.1051
▁любом	-10.1072
▁страну	-10.1084
▁МКС	-10.109
▁существования	-10.109
▁спустя	-10.109
▁сожалению	-10.109
▁концов	-10.1091
▁Sex	-10.1091
▁осталось	-10.1092
▁хотелось	-10.1092
▁шаг	-10.1093
рин	-10.1094
▁пусть	-10.1094
▁будущего	-10.1097
▁доказательств	-10.1101
▁роста	-10.1101
ул	-10.1104
нг	-10.1111
▁вечером	-10.1122
▁Китай	-10.1125
▁институт	-10.1128
▁причиной	-10.1145
▁граф	-10.1153
▁делают	-10.1153
лер	-10.1163
▁собственной	-10.1164
as	-10.1167
▁XX	-10.1181
ряду	-10.1181
▁ISBN	-10.1185
▁большую	-10.1185
▁девушки	-10.1185
▁путем	-10.1185
▁идти	-10.1186
▁определения	-10.1187
▁субъектов	-10.1193
▁2001	-10.1194
▁ресурсов	-10.1202
▁море	-10.1203
▁7.	-10.1204
▁местных	-10.1207
▁похоже	-10.1212
▁прост	-10.1217
▁видимо	-10.1222
▁вес	-10.1228
ались	-10.123
▁завод	-10.1231
▁Верховн	-10.1232
▁35	-10.1233
▁фонд	-10.1239
▁городов	-10.125
сты	-10.1252
▁отдельны	-10.1254
вая	-10.1257
▁предлагает	-10.1257
ший	-10.1258
▁новом	-10.1259
▁другую	-10.1262
ируем	-10.1264
пере	-10.1275
▁проходит	-10.1279
▁Путина	-10.1281
▁Кодексом	-10.1285
▁реальности	-10.1286
ган	-10.1286
▁целей	-10.1288
▁временно	-10.129
▁социальные	-10.1291
▁семья	-10.1293
▁Самуцевич	-10.1295
▁режима	-10.1302
▁большим	-10.1303
оло	-10.1322
▁допустим	-10.1323
дела	-10.1324
сад	-10.1325
▁Су	-10.1342
▁Мак	-10.1348
▁кокаин	-10.1358
▁контракт	-10.136
Это	-10.136
▁проектов	-10.1361
▁рис	-10.1366
▁инженер	-10.1377
▁домой	-10.1377
▁достижения	-10.1378
▁конструкции	-10.1379
фор	-10.1381
▁член	-10.1385
▁создавать	-10.1385
▁кур	-10.1389
цией	-10.139
▁связанных	-10.1394
▁80	-10.1396
▁Андрей	-10.1402
▁одному	-10.1402
▁Ша	-10.1406
▁политических	-10.1408
▁нарушение	-10.1409
▁включает	-10.141
▁совета	-10.1411
▁материала	-10.1421
дан	-10.1424
▁сайта	-10.1427
▁главе	-10.1427
▁втором	-10.1436
лев	-10.1438
очка	-10.1449
ической	-10.145
▁черт	-10.1459
▁продолжает	-10.146
▁страх	-10.1461
▁форму	-10.1463
▁любовь	-10.147
▁Премьер	-10.1476
▁разработки	-10.1476
▁любви	-10.1476
▁стекла	-10.1476
рк	-10.1485
работа	-10.1493
▁массы	-10.1498
▁Па	-10.1499
▁привести	-10.15
▁свойств	-10.1501
li	-10.1502
▁сделали	-10.1507
▁60	-10.1507
▁куп	-10.1517
дол	-10.1518
▁президентом	-10.1519
бра	-10.1525
▁Закона	-10.1527
ol	-10.1529
▁мастер	-10.153
ведение	-10.1533
лам	-10.1533
чё	-10.1534
▁Вмест	-10.1537
▁очевидно	-10.1538
▁никакой	-10.1542
пле	-10.1551
▁языков	-10.1551
ович	-10.1552
▁руб	-10.1555
леп	-10.1564
▁понедельник	-10.1575
▁здания	-10.1575
▁мысль	-10.1575
▁нефти	-10.1576
▁Южн	-10.1576
▁2013	-10.1577
▁направлении	-10.158
▁основания	-10.158
2.	-10.1583
▁элементов	-10.1585
▁чувство	-10.1587
▁пришли	-10.1589
▁медиа	-10.1589
▁процентов	-10.1592
▁масштаб	-10.1592
▁партий	-10.1593
▁национальной	-10.1594
▁живописи	-10.1596
дал	-10.1602
▁федеральны	-10.1602
▁состава	-10.1606
▁Особенно	-10.1608
▁губернатор	-10.1611
ину	-10.1611
▁наверное	-10.1612
▁p	-10.1615
et	-10.1615
▁состоится	-10.1615
▁материалы	-10.1615
мат	-10.1625
▁продаж	-10.1631
▁Совет	-10.1642
na	-10.1642
▁случайно	-10.1644
шн	-10.1658
ву	-10.1658
▁U	-10.1669
▁основны	-10.167
▁решили	-10.1672
▁d	-10.1674
▁оста	-10.1674
▁письмо	-10.1675
▁можем	-10.1675
▁полиции	-10.1675
▁ремонт	-10.1676
рет	-10.1678
▁концерт	-10.168
▁законы	-10.168
▁предприятий	-10.1682
нием	-10.1685
▁транспорта	-10.1686
▁Советск	-10.1687
аж	-10.1691
se	-10.1694
▁технологии	-10.1694
▁чему	-10.1698
▁веке	-10.17
▁кор	-10.1701
▁главных	-10.1715
американский	-10.172
▁понятие	-10.1725
▁вода	-10.1734
▁прогноз	-10.1736
▁фри	-10.1741
▁группу	-10.1746
▁возраста	-10.1748
▁школе	-10.1752
▁эксперт	-10.1762
▁Сид	-10.1765
▁общ	-10.1766
▁музыка	-10.1769
▁Владимира	-10.1771
▁проведение	-10.1774
▁Иногда	-10.1776
▁статей	-10.1776
▁умер	-10.1777
▁поверхности	-10.1777
▁концу	-10.1777
▁верующих	-10.1777
▁едва	-10.1778
▁Му	-10.1779
▁русский	-10.178
▁существование	-10.1782
ливо	-10.1784
▁федерального	-10.1786
▁клуба	-10.1786
▁1)	-10.1789
▁Просто	-10.1789
▁экономической	-10.1789
щим	-10.179
▁строго	-10.1793
летний	-10.1797
рад	-10.1798
▁прием	-10.1803
фер	-10.1806
▁ноги	-10.1807
▁утром	-10.1807
дом	-10.181
▁призвал	-10.1816
гал	-10.1819
▁пыта	-10.182
реб	-10.1824
гляд	-10.1826
▁заявление	-10.1826
воль	-10.183
▁административно	-10.1835
▁спортивных	-10.1838
+	-10.1842
шего	-10.1844
15	-10.1844
▁даёт	-10.1844
H	-10.1846
▁курс	-10.1848
теля	-10.1853
▁миру	-10.1854
бан	-10.1854
▁знаменит	-10.1857
om	-10.186
▁цена	-10.1863
вших	-10.1867
▁страниц	-10.187
ску	-10.1872
гар	-10.1872
ура	-10.1872
шим	-10.1877
▁скорость	-10.1878
▁явления	-10.1879
▁Через	-10.1879
▁имущества	-10.1889
нин	-10.1891
▁структура	-10.1895
▁цел	-10.1898
▁пространства	-10.1904
▁ответил	-10.1908
▁знают	-10.191
▁хозяйства	-10.1919
▁известный	-10.1922
воз	-10.1929
ia	-10.1931
▁Ча	-10.1935
▁пер	-10.1942
▁фильмов	-10.1943
▁кот	-10.1952
▁наук	-10.1952
▁органом	-10.1959
▁искусстве	-10.196
▁изменение	-10.1964
тика	-10.1966
▁ра	-10.1971
▁слабо	-10.1972
ёл	-10.1975
знач	-10.198
▁Порфирий	-10.1981
▁зарегистрирован	-10.1981
▁операционн	-10.1981
▁здоровья	-10.1982
▁развитию	-10.1983
▁среде	-10.1983
▁решить	-10.1984
▁советских	-10.1985
▁угодно	-10.1986
▁конец	-10.1987
▁причем	-10.1991
13	-10.1991
нского	-10.1994
▁большинства	-10.1998
▁любого	-10.2004
▁кредит	-10.2004
фу	-10.2005
▁размер	-10.2006
▁начинается	-10.2012
▁граждане	-10.2014
▁пространстве	-10.2015
▁оружие	-10.2017
▁Правительство	-10.2017
▁Конституционны	-10.2025
▁авторов	-10.2031
▁Чем	-10.2032
▁ваше	-10.2033
▁чтоб	-10.204
класс	-10.2046
▁вкус	-10.2047
▁механизм	-10.2051
▁Рад	-10.2052
енный	-10.2053
▁играет	-10.2055
▁материал	-10.2057
пал	-10.2063
▁романа	-10.2071
▁возможны	-10.2076
▁полно	-10.208
щий	-10.2082
▁сообщения	-10.2085
▁корабля	-10.2086
▁сердце	-10.2086
▁участков	-10.2086
▁позицию	-10.2086
Газпром	-10.2086
▁рабочих	-10.2087
▁рубля	-10.2089
▁четырёх	-10.209
▁здравоохранения	-10.209
▁окружающей	-10.2091
▁мил	-10.2092
▁проводить	-10.2093
▁борьбе	-10.2096
▁игр	-10.2098
вание	-10.2099
▁Дело	-10.2101
нная	-10.2101
▁руками	-10.2104
▁каса	-10.2104
▁мал	-10.2105
▁Бога	-10.2105
▁войск	-10.2107
v	-10.211
▁трав	-10.2111
▁набор	-10.2112
▁руках	-10.2114
▁подобные	-10.2117
ою	-10.2125
▁образа	-10.2125
▁доход	-10.2127
▁сад	-10.2135
▁какого	-10.2137
▁приняты	-10.214
ита	-10.2141
раст	-10.2148
▁труб	-10.2149
▁имели	-10.215
18	-10.215
ология	-10.2156
ические	-10.216
il	-10.216
▁Бен	-10.2164
▁команд	-10.2169
ших	-10.2174
ическая	-10.2175
над	-10.218
▁сер	-10.2181
▁увидеть	-10.2191
▁понятия	-10.2191
▁исполнения	-10.2193
▁разрешения	-10.2193
▁техники	-10.2196
▁отказался	-10.2198
▁Ман	-10.2199
▁советской	-10.2199
▁степень	-10.2199
ань	-10.22
▁главного	-10.2202
ица	-10.2206
▁обратил	-10.2216
св	-10.222
▁Совета	-10.2224
▁экспериментальн	-10.2228
▁пространство	-10.2232
▁предприятия	-10.2233
лег	-10.2236
▁Лу	-10.2242
80	-10.2242
▁Наибол	-10.2242
▁прос	-10.2243
▁реально	-10.2256
ата	-10.2261
▁авто	-10.2265
▁брак	-10.2266
▁смог	-10.2266
▁диабета	-10.2273
скоре	-10.2274
▁космос	-10.2276
ливы	-10.2278
60	-10.2289
▁стороне	-10.2295
▁теория	-10.2297
▁назвать	-10.2297
▁лежит	-10.2298
▁столице	-10.2298
▁операции	-10.2298
▁Обама	-10.2298
▁родители	-10.2298
▁пытается	-10.2301
▁предложения	-10.2302
25	-10.2304
▁искать	-10.2305
▁посмотреть	-10.2309
▁американского	-10.2313
▁планируется	-10.2316
▁линии	-10.2318
▁поставить	-10.2327
енная	-10.2332
общ	-10.2335
V	-10.2335
чные	-10.2336
▁принципа	-10.2337
▁вечер	-10.2337
▁конфликт	-10.2341
телей	-10.2343
ёв	-10.2345
▁Би	-10.2348
▁качество	-10.2349
▁играть	-10.2349
альный	-10.2355
▁мед	-10.2356
рован	-10.2357
▁Пре	-10.2357
ложить	-10.2358
▁занял	-10.2378
▁страшно	-10.2379
▁темы	-10.2386
sh	-10.2391
▁ярко	-10.2405
▁крови	-10.2406
▁жители	-10.2406
▁плав	-10.2406
▁Затем	-10.2407
▁создании	-10.2413
▁выйти	-10.2414
▁распространение	-10.2417
эр	-10.2417
ован	-10.2418
▁работают	-10.242
▁британск	-10.2422
1.	-10.2425
ины	-10.2427
▁окончания	-10.2428
▁введения	-10.2432
▁международного	-10.2436
ический	-10.2438
▁боль	-10.2441
▁дают	-10.2443
▁представляют	-10.2445
ологи	-10.2446
▁верх	-10.2453
▁объем	-10.2456
▁велико	-10.2459
действ	-10.246
▁двор	-10.2471
▁глазами	-10.2479
скому	-10.2484
am	-10.2499
▁учет	-10.2501
▁проб	-10.2502
▁такими	-10.2511
▁Отметим	-10.2514
▁концепции	-10.2514
▁музыку	-10.2514
▁наличии	-10.2514
▁функций	-10.2514
▁ОВД	-10.2514
▁собственных	-10.2514
▁Вообще	-10.2514
▁природы	-10.2514
▁сооружения	-10.2514
▁гос	-10.2515
▁отличается	-10.2516
▁следующем	-10.2517
▁фонем	-10.2526
▁связанные	-10.2528
енной	-10.253
▁доста	-10.2531
итель	-10.2535
▁зам	-10.2536
▁выхода	-10.2537
▁существуют	-10.2538
▁открыт	-10.2541
дали	-10.2542
▁частично	-10.2546
▁республики	-10.2548
▁входит	-10.2552
▁опубликован	-10.2554
▁соглашение	-10.2555
▁конкурент	-10.2556
▁вариантов	-10.2558
▁будущее	-10.2558
▁доля	-10.2571
▁космически	-10.2573
вр	-10.2577
▁воду	-10.258
▁код	-10.2582
▁Ан	-10.2582
▁явление	-10.2583
▁наша	-10.2583
▁ужас	-10.2584
щих	-10.2588
▁мор	-10.2588
нц	-10.2595
▁культуре	-10.2597
▁блок	-10.2597
тки	-10.2597
▁эффективно	-10.2598
▁утверждает	-10.2599
▁нарушения	-10.2601
▁крупнейши	-10.2609
▁Гор	-10.2614
▁смерть	-10.2621
▁стен	-10.2622
▁землю	-10.2623
▁ценности	-10.2628
▁пользователи	-10.2629
уль	-10.2629
дачи	-10.2631
▁следующим	-10.2632
▁доказательства	-10.2633
▁аудитории	-10.2636
▁мозга	-10.2637
эк	-10.2639
▁веществ	-10.2639
илось	-10.2643
▁эпохи	-10.2643
▁островов	-10.2646
▁приз	-10.2654
▁Серге	-10.2658
▁бор	-10.2662
стал	-10.2664
▁массовой	-10.267
цов	-10.2672
▁политика	-10.2675
▁аппарат	-10.2678
▁Дж	-10.2682
крас	-10.2686
th	-10.2688
▁обраща	-10.2696
▁дополнительны	-10.2698
▁способом	-10.2698
▁товар	-10.2707
▁команда	-10.2708
lo	-10.271
▁авторы	-10.2711
▁государственн	-10.2715
▁иные	-10.2716
ад	-10.272
▁жал	-10.272
▁ген	-10.2723
ma	-10.2728
▁моря	-10.2729
▁Австралии	-10.2735
▁соглашения	-10.2735
▁ФМС	-10.2735
▁1998	-10.2735
▁появился	-10.2738
▁говорю	-10.274
душ	-10.274
▁слышал	-10.274
▁зал	-10.2745
▁молодых	-10.2747
▁заключение	-10.2751
рам	-10.276
ирования	-10.276
▁передачи	-10.2761
▁пунктом	-10.2763
ических	-10.2766
▁солдат	-10.277
рик	-10.2775
стях	-10.2776
▁гражданин	-10.2777
▁известных	-10.2777
▁ба	-10.2792
▁сына	-10.2796
это	-10.2797
▁занимает	-10.2797
еля	-10.2798
▁вызов	-10.28
▁комитета	-10.2804
▁богат	-10.281
вшим	-10.2816
▁видеть	-10.2816
▁Кол	-10.2816
▁=	-10.2816
руб	-10.282
▁2)	-10.2829
▁программе	-10.2833
▁2-	-10.2833
▁высокой	-10.2835
ad	-10.2835
▁идеал	-10.2837
▁топ	-10.2838
▁нашим	-10.2841
▁внешни	-10.2843
логи	-10.2843
иц	-10.2846
▁Грузии	-10.2847
▁субботу	-10.2847
▁партия	-10.2847
▁научных	-10.2847
▁должностны	-10.2849
▁остальных	-10.2851
▁дальнейшем	-10.2852
▁Анна	-10.2856
▁Где	-10.2859
▁специалистов	-10.286
▁разум	-10.286
▁память	-10.2862
▁практике	-10.2863
▁Бу	-10.2868
▁эволюции	-10.2869
▁каком	-10.2873
сом	-10.2874
▁попытки	-10.2875
▁расходов	-10.2886
▁генерал	-10.2897
ul	-10.2902
▁нашли	-10.2905
»:	-10.2916
кус	-10.2918
ением	-10.2922
▁поезд	-10.2926
▁Европейск	-10.2929
▁этими	-10.2929
▁продолжительн	-10.2931
▁мм	-10.2932
▁Пред	-10.294
▁написан	-10.2941
▁приходит	-10.2944
зв	-10.2949
▁90	-10.2952
чным	-10.2953
▁иной	-10.2956
▁неожиданно	-10.296
▁компанией	-10.2961
▁религии	-10.2961
▁творчество	-10.2961
▁лучших	-10.2961
▁1991	-10.2961
большого	-10.2961
▁честно	-10.2961
▁развитии	-10.2962
▁корпус	-10.2962
▁нужен	-10.2963
▁названия	-10.2964
▁родился	-10.2965
▁типов	-10.2967
▁занятия	-10.2978
▁двадцати	-10.2979
▁большинстве	-10.298
▁дочь	-10.2982
▁напротив	-10.2988
▁видит	-10.2988
бар	-10.2989
▁половины	-10.3001
зер	-10.3003
▁пожар	-10.3005
▁кос	-10.3006
▁потенциальн	-10.3007
▁имеется	-10.3008
▁любим	-10.3013
▁зато	-10.3014
▁погиб	-10.3017
▁другая	-10.3023
▁Ги	-10.3025
▁каждом	-10.3032
▁успел	-10.3035
нной	-10.3036
вшегося	-10.3038
▁жена	-10.3042
▁штраф	-10.3044
W	-10.3044
▁вызвал	-10.3056
▁реки	-10.3058
ющейся	-10.3063
▁ног	-10.307
▁опыта	-10.3074
▁Белоруссии	-10.3075
▁тяжело	-10.3075
▁МВД	-10.3075
▁связей	-10.3075
▁участвовать	-10.3075
▁Урана	-10.3076
▁недостаточно	-10.3079
▁вскоре	-10.3082
▁многом	-10.3083
▁арбитражны	-10.3084
▁Больш	-10.3089
▁завтра	-10.3089
▁могло	-10.309
▁главной	-10.3092
▁потенциал	-10.3094
▁отдыха	-10.3095
вет	-10.3099
▁третий	-10.3101
туп	-10.3101
дж	-10.3104
▁европейской	-10.3105
▁ночью	-10.3111
▁расходы	-10.3111
тел	-10.3119
▁картина	-10.3121
▁мужчины	-10.3127
▁Петр	-10.3129
▁плане	-10.3135
▁Ор	-10.314
олк	-10.3147
▁ночи	-10.3151
▁веб	-10.3158
рев	-10.3159
пит	-10.316
▁принцип	-10.3166
▁судебном	-10.3167
смотр	-10.3173
▁уплате	-10.3175
▁памятник	-10.3176
▁рек	-10.3177
▁высказал	-10.3179
▁бюджетны	-10.318
▁исход	-10.3182
ора	-10.3186
кую	-10.3191
▁администрации	-10.3192
▁декабре	-10.3192
▁дороге	-10.3192
▁пользоваться	-10.3192
▁начиная	-10.3193
▁половин	-10.3193
▁знания	-10.3193
▁продажи	-10.3194
▁американские	-10.3196
▁Каждый	-10.3197
▁Её	-10.3197
ницы	-10.3205
▁гражданского	-10.3211
▁сумму	-10.3215
дет	-10.3217
▁молодой	-10.3225
▁лидеров	-10.323
▁меж	-10.323
▁Ему	-10.3231
фон	-10.3231
!"	-10.3233
▁участники	-10.3241
ления	-10.3242
▁ранни	-10.3242
14	-10.3247
▁конкурс	-10.3249
▁наше	-10.325
кан	-10.326
▁военной	-10.3262
▁законов	-10.3265
▁Фа	-10.3265
ter	-10.3273
▁интернета	-10.3274
▁Союза	-10.3276
шин	-10.3279
гл	-10.3284
▁немало	-10.3285
▁стихи	-10.3289
▁канал	-10.3291
▁площадь	-10.3292
▁банка	-10.3292
пут	-10.3306
▁этапе	-10.3307
▁Правительства	-10.3309
▁некоторым	-10.3309
▁последней	-10.3309
▁Земли	-10.3309
▁настоящий	-10.3309
▁писателя	-10.331
▁здание	-10.331
▁суток	-10.331
▁принадлежит	-10.331
▁параметры	-10.332
▁периода	-10.3321
▁желание	-10.3323
▁регионов	-10.3324
▁Итак	-10.3326
▁рук	-10.3327
▁американской	-10.3332
рак	-10.3334
брос	-10.3337
▁занимается	-10.334
▁установленном	-10.3344
▁m	-10.3347
▁учетом	-10.3349
уют	-10.3352
лот	-10.3353
▁российским	-10.3355
▁сезона	-10.3356
▁полос	-10.3358
▁Три	-10.3362
▁секс	-10.3367
▁базе	-10.3367
▁четырех	-10.3369
часть	-10.3377
ско	-10.3386
▁миллиона	-10.3386
▁души	-10.3392
▁подробно	-10.3393
▁медицинск	-10.3393
▁редактор	-10.3398
▁решать	-10.3399
▁гг	-10.3402
▁предложен	-10.3409
▁Ду	-10.3413
ума	-10.3416
▁режиссёр	-10.3417
еле	-10.3424
логоплательщика	-10.3426
▁Церкви	-10.3428
▁выглядит	-10.3428
▁поколения	-10.3428
▁заранее	-10.3428
▁потребности	-10.3429
▁герой	-10.3429
▁сделан	-10.3431
▁Поскольку	-10.3431
▁составляют	-10.3433
▁конфликта	-10.3433
▁русские	-10.3433
▁зачастую	-10.3434
▁гражданства	-10.3436
▁благотворительн	-10.3436
Следует	-10.3437
▁оказалась	-10.3438
▁маршрут	-10.3438
▁матч	-10.3439
▁смогли	-10.3439
емого	-10.3441
▁появились	-10.3443
▁36	-10.3445
▁председатель	-10.3446
pe	-10.3449
▁думать	-10.3453
▁подобных	-10.3453
▁использованием	-10.3453
▁мнения	-10.3453
▁международных	-10.3454
▁издание	-10.3454
изация	-10.3455
▁кем	-10.3455
▁Новый	-10.3456
плоть	-10.3463
крат	-10.3464
▁камер	-10.3466
▁канала	-10.3466
05	-10.3469
ара	-10.3474
▁московски	-10.348
▁смотрел	-10.3484
▁причине	-10.3492
жит	-10.3494
▁контакт	-10.3495
ительно	-10.3495
дем	-10.3497
▁Ин	-10.3503
▁задержан	-10.3507
▁Го	-10.351
▁северо	-10.3513
▁остров	-10.352
▁компьютерн	-10.3522
сте	-10.3522
▁промышленн	-10.3525
▁устройств	-10.3528
▁голуб	-10.3543
▁w	-10.3547
▁Роберт	-10.3549
▁совершил	-10.3549
▁ощущение	-10.355
▁1999	-10.355
▁позволяют	-10.355
▁голосования	-10.355
▁провал	-10.3552
▁войска	-10.3554
▁Дмитрия	-10.3555
▁выходит	-10.3556
▁живут	-10.3557
▁придётся	-10.3557
▁ядерно	-10.3562
▁пообещал	-10.3566
▁элементы	-10.3569
▁законами	-10.3569
▁рад	-10.3571
▁запрос	-10.3572
▁журналистов	-10.3574
▁древни	-10.3574
▁используются	-10.3575
▁Само	-10.3578
▁напоминает	-10.3581
▁сто	-10.3582
▁пишут	-10.3585
▁попытка	-10.3588
вели	-10.3589
▁de	-10.359
▁исполнительно	-10.3595
▁выбран	-10.3609
скими	-10.3611
▁квартире	-10.3612
▁учреждения	-10.3617
▁повышение	-10.3617
▁помещение	-10.3619
▁возможных	-10.3623
тян	-10.3625
▁охот	-10.3625
▁бал	-10.363
▁Ваш	-10.3631
▁крас	-10.3632
▁вещества	-10.3638
▁конференции	-10.3644
▁используют	-10.3651
цию	-10.366
▁поэт	-10.3662
▁Мир	-10.3664
▁района	-10.3665
▁Ткаченко	-10.3671
▁иностранца	-10.3671
▁мероприятий	-10.3671
▁ненависти	-10.3671
▁неоднократно	-10.3671
▁позиция	-10.3671
ившись	-10.3672
▁определить	-10.3672
▁сообщение	-10.3673
▁неделе	-10.3673
▁переговоров	-10.3674
готов	-10.3675
▁баб	-10.3677
ивается	-10.368
яж	-10.3681
▁скорости	-10.3681
▁мировы	-10.3682
▁принципе	-10.3683
▁лицензии	-10.3683
▁понимает	-10.3684
▁выполнения	-10.3687
▁пл	-10.3689
▁профессиональны	-10.369
▁песен	-10.3691
▁картин	-10.3695
▁внутренних	-10.3696
вел	-10.3699
▁Ру	-10.3701
▁спрос	-10.3702
пр	-10.3707
▁студенты	-10.3707
▁ограничен	-10.3713
▁проекты	-10.3717
▁успеха	-10.3717
▁преступление	-10.3718
24	-10.3718
▁члены	-10.3722
▁религиозной	-10.3722
▁вернулся	-10.3723
▁объявлен	-10.3724
▁сцене	-10.3728
▁вход	-10.3733
ником	-10.3733
нской	-10.3734
▁доступа	-10.3735
▁поход	-10.3741
▁характеристики	-10.3743
Про	-10.3744
▁небо	-10.3744
▁полезно	-10.3754
▁протеста	-10.3754
кер	-10.3755
город	-10.3759
Ка	-10.3769
▁рассказывает	-10.377
ниц	-10.3772
▁музыкальн	-10.3773
–	-10.3773
▁ровно	-10.3774
следствие	-10.3774
сил	-10.3775
▁очередно	-10.3776
▁агентства	-10.3776
▁Надо	-10.3781
▁and	-10.3789
щен	-10.379
ПУТИН	-10.3794
▁Yahoo	-10.3794
▁следующего	-10.3795
▁никому	-10.3795
▁обращения	-10.3796
▁рассмотрения	-10.3796
▁сложности	-10.3804
▁хороший	-10.381
▁выпуска	-10.381
▁программно	-10.3819
▁среднего	-10.3822
▁объяснить	-10.3823
тек	-10.3824
▁исходя	-10.3824
ющегося	-10.3824
▁леса	-10.3824
▁художественны	-10.3825
▁выяснилось	-10.3829
действительности	-10.3837
um	-10.3842
▁6.	-10.3844
▁прибыли	-10.3848
альные	-10.3856
▁бар	-10.3857
ерн	-10.3858
▁задачу	-10.3862
▁столичн	-10.3863
▁брака	-10.3865
▁стандарт	-10.3867
если	-10.3869
шка	-10.387
игра	-10.3872
▁опер	-10.3872
▁сигнал	-10.3876
ций	-10.3884
▁рассказ	-10.3885
▁руководителя	-10.389
сот	-10.389
щей	-10.3893
K	-10.3897
оли	-10.3898
▁фото	-10.3902
▁получает	-10.3904
▁дорог	-10.3905
ланд	-10.3908
писа	-10.3913
▁устройство	-10.3914
▁вопроса	-10.3915
▁друзей	-10.3919
▁музей	-10.3919
▁поддержки	-10.3919
▁серьёзно	-10.3919
▁ценностей	-10.3919
▁предыдущи	-10.3919
▁становятся	-10.392
▁властей	-10.392
▁комиссии	-10.392
▁Павел	-10.392
▁фотографии	-10.3921
▁станут	-10.3922
▁завода	-10.3923
▁гр	-10.3923
дра	-10.3927
▁выступления	-10.3927
щихся	-10.3929
▁принимающе	-10.3929
▁военные	-10.3934
▁начинают	-10.3935
тир	-10.394
▁Человек	-10.3944
▁Главн	-10.3949
▁доходов	-10.3949
▁опасность	-10.3949
▁сюда	-10.395
ностью	-10.395
▁описан	-10.3958
▁визы	-10.3958
▁доли	-10.396
▁каждому	-10.3966
▁журналист	-10.3969
ваться	-10.3974
▁выс	-10.3977
▁конституционно	-10.3979
U	-10.3981
▁купить	-10.3987
▁аль	-10.3988
me	-10.3988
▁частиц	-10.399
▁документа	-10.3995
▁использу	-10.3997
▁сезон	-10.3998
▁поставил	-10.3998
рем	-10.3998
аны	-10.3999
▁Ге	-10.4
▁регионе	-10.4002
▁ле	-10.4005
▁население	-10.401
▁недель	-10.401
▁Им	-10.4015
▁вред	-10.4024
▁полёт	-10.4025
▁понял	-10.4025
▁предполагает	-10.4025
▁характеристик	-10.4026
Если	-10.4028
▁установлен	-10.4031
▁дверь	-10.4031
▁Оста	-10.4031
▁лидера	-10.4033
отсутствии	-10.4046
▁полномочий	-10.4046
▁сказано	-10.4046
▁жюри	-10.4046
▁обвинения	-10.4046
овский	-10.4047
▁лицами	-10.4047
▁сознания	-10.4048
▁хватает	-10.4048
европейских	-10.4053
▁машина	-10.4054
▁нечто	-10.4055
▁использован	-10.4055
▁чиновников	-10.4059
▁понимать	-10.4059
▁Николай	-10.4061
слав	-10.4066
жил	-10.407
▁велик	-10.407
▁уголовно	-10.407
▁семью	-10.4072
▁стол	-10.4076
▁продукт	-10.4077
▁Ри	-10.4078
▁приём	-10.4081
▁лицам	-10.4086
НО	-10.4086
▁земельных	-10.4089
▁стиле	-10.4089
▁нами	-10.4096
▁перемен	-10.4096
▁другу	-10.4099
онов	-10.4108
▁благ	-10.4115
тик	-10.4117
▁украинск	-10.4118
▁странно	-10.4121
▁причины	-10.4128
▁телефон	-10.4129
▁метода	-10.4135
▁звуков	-10.4136
Ю	-10.4143
▁in	-10.4145
▁рекорд	-10.415
льд	-10.4152
▁увидел	-10.4166
▁ПО	-10.4167
▁учёта	-10.4169
▁Джордж	-10.4174
▁музея	-10.4174
▁накануне	-10.4174
▁детям	-10.4174
▁ведущих	-10.4175
▁быстрее	-10.4176
▁впоследствии	-10.4181
▁интерфейс	-10.4181
▁назначения	-10.4181
▁источника	-10.4182
телем	-10.4185
▁мечта	-10.4186
▁любит	-10.4191
▁факторов	-10.4191
летнего	-10.4193
09	-10.4197
▁находиться	-10.4199
▁мозг	-10.4203
▁продолжают	-10.4207
▁экономических	-10.4207
▁требуется	-10.4211
▁написано	-10.4216
▁цикл	-10.4217
▁двери	-10.4217
▁въезд	-10.4221
▁товары	-10.4222
ион	-10.4224
мея	-10.4225
▁офис	-10.4225
▁ха	-10.4236
▁применение	-10.4236
▁эфир	-10.4238
▁мобильны	-10.424
id	-10.4245
Да	-10.4247
▁миф	-10.4247
▁90-	-10.4249
▁получение	-10.425
тка	-10.425
▁считаю	-10.4253
дель	-10.4256
дели	-10.4258
▁холод	-10.426
денежных	-10.4264
▁театре	-10.4265
град	-10.4266
ители	-10.4267
▁написать	-10.4267
▁связаны	-10.427
▁перевода	-10.429
▁дав	-10.4296
ировали	-10.4296
йтесь	-10.4298
▁красно	-10.4301
▁Chrome	-10.4304
▁Дэвид	-10.4304
▁ежегодно	-10.4304
▁Спасибо	-10.4304
▁Большинств	-10.4304
▁изделий	-10.4304
▁ЖЖ	-10.4305
▁восемь	-10.4306
▁Стоит	-10.4307
▁обладает	-10.431
▁тихо	-10.431
▁показывает	-10.4311
▁курса	-10.4323
ак	-10.4324
еб	-10.4327
▁Сер	-10.4327
▁местные	-10.4329
нюю	-10.433
▁сознание	-10.4331
лог	-10.4331
▁III	-10.4332
▁полный	-10.4333
▁счастлив	-10.4333
вка	-10.4333
асс	-10.434
▁влияния	-10.4343
▁принципы	-10.4351
▁заметно	-10.4352
▁заявила	-10.4352
рог	-10.4355
▁многоквартирно	-10.4356
▁приняли	-10.4359
▁свобод	-10.4365
▁нужна	-10.437
▁городах	-10.4377
шел	-10.438
▁продуктов	-10.438
нным	-10.4389
90	-10.4392
▁поисков	-10.4393
▁20-	-10.4395
▁молод	-10.4396
▁выполнение	-10.4398
▁служит	-10.4399
▁знак	-10.4401
опис	-10.4404
▁Красн	-10.4404
ie	-10.4406
▁требованиям	-10.4408
стов	-10.4411
▁организма	-10.4412
▁девушка	-10.4412
▁сверх	-10.4412
▁тексты	-10.4414
нка	-10.4415
лист	-10.4416
тора	-10.4422
▁400	-10.4424
▁идут	-10.4425
гул	-10.4425
очки	-10.443
плох	-10.443
▁похожи	-10.4431
▁причинам	-10.4431
▁болезни	-10.4436
▁нравится	-10.4436
▁санкции	-10.4436
▁спокойно	-10.4436
▁узнать	-10.4436
▁стадии	-10.4436
▁Причём	-10.4436
▁пятницу	-10.4436
▁Перед	-10.4437
▁собрания	-10.4438
▁запас	-10.4439
▁возможностей	-10.4439
▁читал	-10.4439
▁усилия	-10.444
▁отставку	-10.4441
▁Windows	-10.4442
▁четверг	-10.4446
лина	-10.4446
▁защиту	-10.4447
▁преступлений	-10.4447
▁иное	-10.4449
▁сборной	-10.445
▁став	-10.445
▁нефть	-10.4452
▁суть	-10.4452
нец	-10.4453
▁воздух	-10.4456
▁участием	-10.4456
▁союза	-10.4461
▁близко	-10.4461
сков	-10.447
▁бег	-10.4472
ывать	-10.4474
▁установлено	-10.4474
▁Запад	-10.4476
джи	-10.4481
»?	-10.4486
▁полном	-10.4487
▁голоса	-10.4489
▁боевы	-10.4493
▁жертв	-10.4496
▁шоу	-10.45
▁подпис	-10.4501
▁объекты	-10.4505
▁управление	-10.4507
▁бывши	-10.4517
▁доступны	-10.4524
▁Автор	-10.4527
▁самим	-10.4528
▁процессов	-10.4529
▁режиме	-10.4529
▁груза	-10.453
▁Министерств	-10.4534
▁опас	-10.4536
▁электро	-10.4537
▁след	-10.4539
▁Был	-10.4547
▁45	-10.4554
▁директора	-10.4554
без	-10.4561
▁проблему	-10.4561
щего	-10.4561
работать	-10.4561
▁хорош	-10.4561
▁Денис	-10.4568
▁получают	-10.4569
▁событие	-10.4569
▁подготовки	-10.4569
▁секрет	-10.4569
▁Турции	-10.4569
▁именем	-10.457
▁колец	-10.4572
▁заключается	-10.4572
▁остаются	-10.4572
▁появления	-10.4573
▁произведений	-10.4574
ci	-10.4575
▁Вертов	-10.4576
▁производится	-10.4578
▁экзамен	-10.458
▁Главный	-10.4582
▁получилось	-10.4582
▁пришёл	-10.4583
▁выда	-10.4585
▁законопроект	-10.4586
▁встрече	-10.4586
личные	-10.4588
▁покинул	-10.459
▁рекламы	-10.4592
▁сумма	-10.4593
▁художника	-10.4594
▁миллион	-10.4597
▁председателя	-10.4598
▁Мал	-10.4599
▁российском	-10.4599
овали	-10.4601
▁фильме	-10.4601
▁проведени	-10.4602
3.	-10.4603
▁бюджетн	-10.4605
йти	-10.461
▁юридических	-10.4616
▁края	-10.4616
▁регулярно	-10.4617
▁грузов	-10.4618
▁представлен	-10.462
▁фондов	-10.4622
▁нормально	-10.4622
для	-10.4626
▁сотрудники	-10.4628
▁чемпион	-10.463
▁воздействие	-10.4635
▁парк	-10.4636
▁3)	-10.4636
▁основным	-10.4642
жели	-10.4645
▁публично	-10.4646
▁доллара	-10.4647
▁расход	-10.4648
▁Лю	-10.4651
▁Роман	-10.4654
ешься	-10.4656
▁метро	-10.4657
!)	-10.4664
▁основан	-10.4664
▁мусульман	-10.4664
нта	-10.4665
▁всём	-10.4667
▁ракет	-10.4668
▁голове	-10.4676
пп	-10.468
▁следствие	-10.4684
16	-10.4686
▁условно	-10.4688
▁век	-10.469
▁ходу	-10.4692
▁люб	-10.4695
▁перспектив	-10.4696
▁вчера	-10.4701
▁парламент	-10.4702
Манчестер	-10.4702
▁известен	-10.4704
▁творчества	-10.4704
▁огня	-10.4704
▁способность	-10.4705
▁депутат	-10.4705
▁обнаружил	-10.471
▁физического	-10.4712
▁Пу	-10.4712
▁Алёхин	-10.4715
▁онлайн	-10.4717
▁скажем	-10.4717
▁собственников	-10.4718
▁нормативны	-10.4718
▁уходит	-10.4724
▁безусловно	-10.4725
овое	-10.4725
движ	-10.4727
▁принят	-10.473
▁описание	-10.473
▁формально	-10.4733
▁потребовал	-10.4737
▁небольшой	-10.4739
поли	-10.4741
▁показали	-10.4741
▁порт	-10.4743
▁тренер	-10.4745
▁сделано	-10.4748
▁остро	-10.4754
ot	-10.4755
▁продолжа	-10.4756
▁150	-10.4765
▁университет	-10.4768
▁ведёт	-10.4776
бить	-10.4777
▁песня	-10.4778
цам	-10.4779
▁планы	-10.4779
▁инструмент	-10.4782
▁взят	-10.4784
▁начальник	-10.4785
▁тяжёл	-10.479
▁общее	-10.4794
▁считал	-10.4797
емый	-10.4797
▁район	-10.48
▁глав	-10.48
енное	-10.4802
аб	-10.4803
ложил	-10.4804
▁аспект	-10.4807
чество	-10.4808
▁пора	-10.4811
▁чёрн	-10.4811
цу	-10.4816
▁Такое	-10.4817
▁планирует	-10.4819
▁студент	-10.482
▁портрет	-10.4822
▁Кур	-10.4824
пред	-10.4825
▁расс	-10.4831
фт	-10.4832
проект	-10.4833
▁стоял	-10.4835
▁открыл	-10.4838
▁призыв	-10.484
▁телевизор	-10.4841
▁знаний	-10.4841
▁каждая	-10.4841
▁сентябре	-10.4841
▁Известно	-10.4841
▁случаи	-10.4841
▁ошибки	-10.4841
▁Министр	-10.4841
://	-10.4841
▁детьми	-10.4841
▁признать	-10.4841
▁оппозиции	-10.4842
▁ХХ	-10.4843
▁утверждают	-10.4844
▁превышает	-10.4845
▁Первые	-10.4846
▁ныне	-10.4846
▁Сети	-10.4846
▁прочих	-10.4846
▁штата	-10.4848
▁любое	-10.485
▁проч	-10.485
▁эксперимента	-10.4851
▁поступил	-10.4853
▁вз	-10.4855
▁услуги	-10.4859
ступления	-10.4864
▁базы	-10.4864
▁пошли	-10.4865
▁войну	-10.4867
▁Майкл	-10.4871
▁подумал	-10.4871
▁собственного	-10.4874
▁методов	-10.4883
▁свободу	-10.4886
щиеся	-10.4886
нув	-10.4892
▁посту	-10.4894
эт	-10.4901
▁волны	-10.4905
пуст	-10.4906
▁Китае	-10.4911
▁шанс	-10.4913
рма	-10.4913
3%	-10.4917
пуск	-10.4918
▁a	-10.4921
▁расчет	-10.4922
70	-10.4924
▁режиссер	-10.4937
▁вектор	-10.4939
▁регионах	-10.4944
▁снижение	-10.4945
▁получит	-10.495
▁Люб	-10.4959
▁талант	-10.496
▁судно	-10.4964
▁ресурс	-10.4966
верш	-10.4966
▁этап	-10.4972
жилых	-10.4973
▁приказ	-10.4978
▁личность	-10.4978
▁мальчик	-10.4979
Ко	-10.498
75	-10.498
▁Татьяна	-10.498
▁отвечает	-10.498
▁гибели	-10.498
▁действует	-10.498
▁человеческого	-10.498
▁вышла	-10.498
▁экономике	-10.498
▁постановление	-10.498
▁можете	-10.498
▁объединения	-10.4981
▁счастье	-10.4982
▁звук	-10.4982
▁2015	-10.4983
▁отказаться	-10.4984
▁исследование	-10.4986
▁импорт	-10.4986
▁Том	-10.4987
▁("	-10.4989
раб	-10.499
▁играл	-10.4995
▁философ	-10.4995
▁Эксперты	-10.4997
▁сцены	-10.5001
▁возврат	-10.5002
▁художник	-10.5007
▁научно	-10.5009
▁космическо	-10.5013
▁подряд	-10.5017
▁вернуться	-10.5019
▁комнате	-10.5025
▁бог	-10.5026
▁ответа	-10.5026
▁имена	-10.5028
▁принципиально	-10.5028
шая	-10.5029
сек	-10.504
▁дает	-10.5044
▁творческ	-10.5045
▁конкурса	-10.5046
лав	-10.5052
цеп	-10.5056
?!	-10.5067
▁сборник	-10.5071
▁приятно	-10.5074
▁предназначен	-10.5078
сквозь	-10.5081
▁ком	-10.5086
▁гражданам	-10.5086
остей	-10.5089
▁всяк	-10.5093
▁подписан	-10.5094
▁вып	-10.5096
▁средствами	-10.5109
▁единиц	-10.5113
▁свете	-10.5114
зон	-10.5117
▁Михаила	-10.5118
▁Иран	-10.5118
▁Америке	-10.5121
▁Компания	-10.5121
▁Наконец	-10.5121
▁происхождения	-10.5121
▁фестиваля	-10.5121
▁останется	-10.5121
▁добиться	-10.5121
▁Далее	-10.5121
▁вторник	-10.5121
▁1996	-10.5122
▁двадцать	-10.5123
▁распространения	-10.5124
ивший	-10.5125
▁эпизод	-10.5126
▁миллиардов	-10.5128
▁национального	-10.5129
▁ближайши	-10.5129
ида	-10.5131
▁редакции	-10.5131
▁разрешение	-10.5132
01	-10.5135
▁душе	-10.5138
▁одни	-10.5142
▁мимо	-10.5142
▁ро	-10.5143
▁оба	-10.5143
▁Меня	-10.5144
▁физкультурно	-10.5144
▁политику	-10.5145
▁свят	-10.5148
▁мной	-10.5152
▁получать	-10.5153
▁Мер	-10.5154
▁паровозы	-10.5155
▁штрафа	-10.5155
▁головы	-10.5157
▁Министерство	-10.5158
▁ядерного	-10.5163
▁Билли	-10.5163
▁статья	-10.5164
▁менеджер	-10.5165
▁свободного	-10.5169
▁среднем	-10.5172
▁фонемы	-10.5178
▁средне	-10.5181
▁праве	-10.5182
▁игру	-10.5185
▁съезд	-10.5188
ьных	-10.5189
пан	-10.5195
▁статью	-10.5196
▁долги	-10.5201
▁акт	-10.5201
▁агентство	-10.5202
ho	-10.5203
▁партнёр	-10.5205
низ	-10.5208
▁долг	-10.5209
▁предоставлени	-10.5211
▁Ван	-10.5211
▁Такой	-10.5216
▁сообщили	-10.5222
евой	-10.5223
▁вечно	-10.523
▁самую	-10.5234
нит	-10.5239
▁независимы	-10.524
▁гон	-10.5249
▁нашем	-10.525
пом	-10.5251
▁силой	-10.5256
▁городск	-10.5257
▁руководством	-10.5257
▁парламента	-10.5259
▁поста	-10.526
▁института	-10.5261
▁Twitter	-10.5264
▁взаимодействия	-10.5264
▁обязанностей	-10.5264
▁Греции	-10.5264
▁собственный	-10.5264
РИА	-10.5264
▁сотни	-10.5264
▁здоровье	-10.5264
ВКонтакте	-10.5265
▁измерения	-10.5265
▁Решение	-10.5265
▁самому	-10.5265
▁правления	-10.5265
▁идею	-10.5266
▁Всего	-10.5266
▁огромное	-10.5271
21	-10.5272
▁составлен	-10.5272
▁революции	-10.5273
▁учета	-10.5274
▁Никто	-10.5275
▁суров	-10.5278
▁комнату	-10.5279
▁протест	-10.5279
▁совершения	-10.528
▁Андрея	-10.528
▁хотели	-10.5285
▁видим	-10.5285
▁Два	-10.5286
пен	-10.5286
▁душу	-10.5288
▁поставлен	-10.5289
▁гости	-10.529
▁откуда	-10.5291
▁Ста	-10.5292
▁ТЗ	-10.5294
▁думал	-10.5296
▁установить	-10.5298
de	-10.5298
▁диск	-10.5298
▁образов	-10.53
▁шум	-10.5302
емой	-10.5304
свет	-10.5305
ира	-10.5307
▁духа	-10.5315
▁Пер	-10.5316
явилось	-10.5319
»;	-10.532
▁частных	-10.5321
▁контент	-10.5322
▁общественной	-10.5323
ард	-10.5333
альным	-10.5339
еры	-10.534
▁бывше	-10.5349
▁ядерны	-10.5349
много	-10.5358
▁инсулина	-10.5363
▁33	-10.5365
▁шт	-10.5369
▁железны	-10.5369
▁украински	-10.537
▁учебно	-10.537
▁опубликовал	-10.5373
▁жар	-10.5373
вери	-10.5377
▁Вопрос	-10.538
▁судебны	-10.5381
▁друзья	-10.5385
03	-10.5392
бирать	-10.5395
▁пап	-10.5398
▁сыграл	-10.5402
22	-10.5403
президент	-10.5408
▁iPad	-10.5409
▁алгоритм	-10.5409
▁впечатление	-10.5409
▁обучения	-10.5409
▁Обычно	-10.5409
▁Искусство	-10.5409
▁единственный	-10.5409
▁изначально	-10.5409
▁требование	-10.5409
▁критики	-10.5409
▁Обамы	-10.541
▁потери	-10.5411
▁немедленно	-10.5411
▁общения	-10.5412
▁никого	-10.5415
▁вошли	-10.5417
▁громко	-10.5421
▁неплохо	-10.5422
▁моего	-10.5428
▁показатели	-10.5432
бег	-10.5434
▁Вашингтон	-10.5438
▁пункт	-10.5438
▁Ольга	-10.544
▁проведен	-10.5447
▁арт	-10.5447
били	-10.5449
клон	-10.545
▁Олег	-10.5452
▁вопросом	-10.5453
ела	-10.5456
▁BP	-10.5456
▁различным	-10.546
▁тонн	-10.546
▁мин	-10.5463
▁чу	-10.5465
▁ред	-10.5465
▁получа	-10.5466
▁сроки	-10.5468
000	-10.5469
▁противоположн	-10.5471
▁IC	-10.5472
▁государством	-10.5474
▁Президента	-10.5475
-2	-10.5477
инов	-10.548
▁культура	-10.5481
ine	-10.5483
▁пропаганд	-10.5487
▁уплат	-10.5488
▁1990	-10.5491
ивает	-10.5491
акци	-10.5492
▁агента	-10.5495
▁Петров	-10.5503
телями	-10.5504
арт	-10.5505
▁фа	-10.5506
▁телеканал	-10.5507
▁Кан	-10.5514
▁профессионально	-10.5522
дать	-10.5525
▁моих	-10.5525
▁ходить	-10.553
▁собственника	-10.5532
▁обстоятельства	-10.5534
▁Бор	-10.5537
▁указывает	-10.5537
▁открыты	-10.5542
▁четвёрт	-10.5545
▁нефтян	-10.5546
▁процент	-10.5548
▁перенос	-10.5554
▁акцент	-10.5556
▁Сильвио	-10.5556
▁сведений	-10.5556
▁сотрудничества	-10.5556
▁Ливии	-10.5556
▁бороться	-10.5556
▁аварии	-10.5556
▁участи	-10.5557
▁люблю	-10.5557
▁арест	-10.5557
▁героев	-10.5557
▁Кореи	-10.5558
▁замуж	-10.556
граф	-10.5562
▁выступает	-10.5563
▁местно	-10.5565
▁возникновения	-10.5565
▁шар	-10.5567
▁возник	-10.5569
▁Первая	-10.5569
▁коротко	-10.5571
▁должность	-10.5573
▁собира	-10.5574
▁дорога	-10.5579
нное	-10.558
пря	-10.5581
▁дали	-10.5582
еров	-10.5584
▁наказание	-10.5588
▁пить	-10.5593
▁ресурсы	-10.56
▁мобильн	-10.56
▁представлены	-10.56
тил	-10.5601
26	-10.5603
▁заказ	-10.5605
▁жили	-10.5605
аты	-10.5606
▁картину	-10.5607
▁источников	-10.5609
▁пошёл	-10.5611
▁мо	-10.5615
▁школа	-10.5617
▁будь	-10.5617
96	-10.5618
▁целый	-10.5623
▁международным	-10.5624
▁изменить	-10.5628
▁европейск	-10.563
▁смотрит	-10.5631
▁переста	-10.5634
▁заявили	-10.5639
▁замен	-10.5644
бес	-10.5652
▁мэр	-10.5654
▁специальн	-10.5655
▁сахарн	-10.5655
вые	-10.5657
▁медленно	-10.5664
▁причина	-10.5666
▁действующи	-10.5668
эм	-10.567
▁ла	-10.5671
▁оценкам	-10.5679
гло	-10.5681
▁представителя	-10.5682
▁Кал	-10.5682
▁дам	-10.5682
▁водо	-10.5683
▁ман	-10.5683
▁диабет	-10.5691
учил	-10.5692
▁возвраща	-10.5692
▁длин	-10.57
▁неприятно	-10.57
▁Лукашенко	-10.5705
▁империи	-10.5705
▁нескольким	-10.5705
▁ноябре	-10.5705
▁октябре	-10.5705
▁последствий	-10.5705
▁ребенок	-10.5705
▁литература	-10.5705
▁подтвердил	-10.5705
▁сезоне	-10.5705
▁представил	-10.5706
▁второе	-10.5706
▁остались	-10.5711
▁фунтов	-10.5712
писать	-10.5712
▁микро	-10.5714
▁советского	-10.5715
▁способен	-10.5715
▁дизайн	-10.5715
▁фирм	-10.5716
▁работников	-10.5717
▁погибли	-10.5717
▁звёзд	-10.5719
▁Друго	-10.572
ta	-10.5723
▁пояснил	-10.5724
▁гол	-10.5726
▁центральн	-10.5729
хват	-10.5732
▁признание	-10.5736
ально	-10.5736
▁стиль	-10.5743
▁двое	-10.5747
ющую	-10.5749
▁Было	-10.5751
▁расп	-10.5751
▁труп	-10.5752
▁признал	-10.5752
казывается	-10.5755
▁маг	-10.5757
▁границ	-10.5762
▁транспортны	-10.5763
▁1000	-10.5765
▁созда	-10.5766
▁кг	-10.5771
▁свободной	-10.5774
▁пользователя	-10.5775
чек	-10.5777
▁дер	-10.5778
▁создал	-10.5778
▁направление	-10.5779
▁приехал	-10.578
▁министра	-10.5781
▁финансы	-10.5782
русски	-10.5787
▁влече	-10.5787
▁войне	-10.5788
▁старше	-10.5789
▁учитывать	-10.579
▁выразил	-10.5792
▁имущество	-10.5792
предел	-10.5795
пил	-10.5799
▁коллег	-10.5804
ическим	-10.5807
▁данн	-10.5807
os	-10.5809
▁книжн	-10.5809
▁Основ	-10.5813
▁комп	-10.5816
Прав	-10.5818
and	-10.582
▁уст	-10.5822
ическое	-10.5822
▁окружающ	-10.5823
технического	-10.5827
▁Ноя	-10.5831
▁сила	-10.5831
лиз	-10.5839
▁Рас	-10.5842
чел	-10.5847
▁предварительно	-10.5855
▁отвечал	-10.5856
▁времён	-10.5856
▁публикации	-10.5857
▁домашне	-10.5857
илл	-10.5857
▁сутки	-10.5857
▁электрическ	-10.5858
▁скромн	-10.5861
▁независимости	-10.5863
▁приходилось	-10.5864
▁пройти	-10.5865
▁экспертизы	-10.5872
▁Гарри	-10.5873
ti	-10.5876
▁Одно	-10.5877
▁объективно	-10.5879
▁появляется	-10.5879
▁давать	-10.5881
▁живёт	-10.5881
▁показывают	-10.5882
▁ограничений	-10.5882
дневн	-10.5882
▁электронной	-10.5885
▁+	-10.5885
▁наблюдения	-10.5885
▁православной	-10.5886
▁измен	-10.5887
▁положительно	-10.5888
▁1-	-10.5889
▁официальны	-10.589
▁сервиса	-10.5891
шёл	-10.5894
▁победы	-10.5895
креп	-10.5896
▁школу	-10.5896
▁фирмы	-10.5898
▁единицы	-10.5901
▁подобного	-10.5902
ющимся	-10.5909
▁птиц	-10.5912
▁конкретно	-10.5912
▁губернатора	-10.592
нская	-10.5921
▁сосед	-10.5922
▁пойти	-10.5924
▁матча	-10.593
▁Афганистане	-10.5931
▁нашу	-10.5932
▁достиг	-10.5934
▁Мор	-10.5946
▁серьёзны	-10.595
▁привело	-10.5952
ошел	-10.5953
шли	-10.5954
ходящих	-10.5954
долго	-10.5956
Кр	-10.5962
ченко	-10.5962
▁пик	-10.5967
дают	-10.5969
Пер	-10.597
▁партнер	-10.5972
▁увеличение	-10.5985
ходит	-10.5986
лем	-10.5987
▁неудач	-10.5989
вались	-10.5992
▁сектор	-10.5999
▁домов	-10.6
вшимся	-10.6005
ологии	-10.6005
совет	-10.6008
▁Основны	-10.6009
▁вверх	-10.601
▁архитектуры	-10.601
▁иностранец	-10.601
▁правоохранител	-10.601
▁творчестве	-10.601
▁феврале	-10.601
▁гасителя	-10.601
▁повышенн	-10.601
▁ошибок	-10.601
▁пользования	-10.6011
▁1992	-10.6011
▁1986	-10.6012
▁раб	-10.6012
▁проверки	-10.6013
▁Антон	-10.6013
▁везде	-10.6013
роп	-10.6014
казываются	-10.6014
▁остался	-10.6014
▁рассмотрение	-10.6015
▁обращение	-10.6015
▁пределами	-10.6019
Союз	-10.6019
▁оборудования	-10.6019
Новости	-10.6019
▁оказаться	-10.602
Россия	-10.602
альной	-10.6022
лок	-10.6023
▁началась	-10.6024
▁че	-10.6024
▁наверняка	-10.6024
▁рот	-10.6025
▁комнаты	-10.6026
▁мост	-10.6027
енным	-10.6028
▁потеря	-10.6029
▁Тур	-10.6029
▁Валери	-10.6031
▁зоны	-10.6035
мена	-10.6037
▁бренд	-10.6037
▁работающи	-10.6037
▁5-	-10.6039
▁нож	-10.6039
▁суммы	-10.604
▁знамениты	-10.6044
▁важных	-10.6048
▁головой	-10.6048
▁выиграл	-10.6049
▁букв	-10.6053
07	-10.6055
стон	-10.6058
ического	-10.606
Ru	-10.6061
щиков	-10.6063
▁интересны	-10.6069
Ан	-10.6071
▁митинг	-10.6072
▁размеры	-10.6073
ers	-10.6077
етесь	-10.6079
▁Зато	-10.608
▁уме	-10.6094
▁верно	-10.6098
▁шла	-10.6103
▁разнообразны	-10.6104
▁представлял	-10.6109
ада	-10.611
▁v	-10.6115
▁побед	-10.6116
▁куб	-10.6118
▁имеются	-10.6126
нять	-10.6128
▁кат	-10.6141
▁ритм	-10.6145
ённые	-10.6147
▁кольцо	-10.6151
ложение	-10.6152
нула	-10.6154
▁реальность	-10.6155
86	-10.6157
▁сбора	-10.6159
водит	-10.6164
▁Сто	-10.6164
▁лиш	-10.6166
▁мышления	-10.6166
▁отсутствия	-10.6166
▁участки	-10.6166
▁хранения	-10.6166
▁посетителей	-10.6166
имся	-10.6167
▁питания	-10.6168
▁испытания	-10.6168
▁испытаний	-10.6169
▁находился	-10.6169
▁сидит	-10.6169
▁пытался	-10.617
▁изображения	-10.6171
▁целиком	-10.6171
▁десятки	-10.6171
▁использовании	-10.6172
уди	-10.6172
▁повышения	-10.6174
▁Интересно	-10.6175
▁фильмы	-10.6176
пункт	-10.6177
Лента	-10.6177
ством	-10.6179
▁предназначенны	-10.6179
▁минуты	-10.6183
▁эпоху	-10.6183
ПК	-10.6183
▁произведение	-10.6183
▁велосипед	-10.6189
▁Оно	-10.6189
▁толст	-10.6193
щик	-10.6194
▁принятие	-10.6196
▁Украина	-10.6196
▁юго	-10.6199
сса	-10.62
ly	-10.6202
▁штат	-10.6204
▁карты	-10.6204
▁Карл	-10.6205
vi	-10.6208
▁смертн	-10.6208
сид	-10.621
▁жалоб	-10.6213
▁трудов	-10.6213
▁христиан	-10.6214
▁боя	-10.6218
▁количестве	-10.6218
▁сохранить	-10.6221
ложения	-10.6222
▁склад	-10.6222
нял	-10.6222
▁взрыва	-10.6222
▁Че	-10.6223
▁ввести	-10.6224
▁смысла	-10.6226
олог	-10.6228
▁полное	-10.6229
альная	-10.6233
▁пан	-10.6234
78	-10.6234
▁Воз	-10.6236
▁космическ	-10.6238
орт	-10.624
▁редки	-10.6241
▁X	-10.6243
▁норма	-10.6247
▁турнир	-10.6248
▁общий	-10.6248
▁размещен	-10.6252
▁магазин	-10.6254
▁мужа	-10.626
руч	-10.6262
щем	-10.6262
жения	-10.6262
▁мае	-10.6271
▁эффективность	-10.6272
▁собрать	-10.6273
▁машину	-10.6278
▁Центральн	-10.6281
▁дар	-10.6281
ас	-10.6282
▁серьезно	-10.6286
щую	-10.629
▁грубо	-10.6291
▁свидетельство	-10.6293
▁Ах	-10.6293
пир	-10.6294
▁New	-10.6298
▁организатор	-10.63
▁меч	-10.6303
08	-10.6303
Пусс	-10.6304
▁брать	-10.6305
▁пункте	-10.6306
▁ворота	-10.6307
▁определяет	-10.6307
▁культур	-10.6307
пов	-10.6308
луч	-10.6312
▁Втор	-10.6315
▁британски	-10.6318
чная	-10.6321
пост	-10.6324
▁Меркель	-10.6325
▁Разумеется	-10.6325
▁прибытии	-10.6325
▁провинции	-10.6325
▁территорию	-10.6325
▁компанию	-10.6325
▁компонент	-10.6325
▁стереотип	-10.6325
▁участок	-10.6325
▁апреле	-10.6325
▁путём	-10.6325
▁отрасли	-10.6325
▁песню	-10.6325
▁пройдёт	-10.6325
▁следующее	-10.6326
▁коэффициент	-10.6327
▁Райот	-10.6327
▁появится	-10.6327
▁денежн	-10.6328
▁вторая	-10.6329
-3	-10.633
▁Часто	-10.633
Мо	-10.6332
▁выстрел	-10.6333
▁голов	-10.6333
▁чувств	-10.6334
тый	-10.6335
▁преимущественно	-10.6338
рей	-10.6338
▁служить	-10.6338
▁функция	-10.6338
▁случилось	-10.6338
хотя	-10.6344
▁показать	-10.6344
▁осозна	-10.6345
▁бизнесмен	-10.6346
▁собрал	-10.6346
▁предприниматель	-10.6347
▁наказания	-10.6351
▁носит	-10.6352
▁пунктов	-10.6353
▁вирус	-10.6354
▁марте	-10.6358
▁цену	-10.6359
▁точнее	-10.636
▁помню	-10.6363
▁огромн	-10.6363
план	-10.6363
▁летом	-10.6365
▁поворот	-10.6365
▁проще	-10.637
▁эксперимент	-10.637
▁экспорт	-10.6371
▁Лев	-10.6372
▁запуска	-10.6373
▁рукой	-10.6376
▁попали	-10.6377
▁бывают	-10.638
45	-10.638
стар	-10.6382
▁вступил	-10.6385
▁мастера	-10.6386
nd	-10.6389
▁суде	-10.639
▁убит	-10.6391
▁Храм	-10.64
▁хвост	-10.6401
▁зоне	-10.6405
клю	-10.6406
суд	-10.6406
меч	-10.6408
▁повтор	-10.6409
Й	-10.6409
▁1,5	-10.6414
▁Российски	-10.6415
▁земля	-10.6422
▁служба	-10.6423
▁удивительно	-10.6423
▁группой	-10.6424
▁здоров	-10.6428
06	-10.643
гин	-10.6431
▁первоначально	-10.6434
▁прекращени	-10.6434
▁занят	-10.6435
▁актер	-10.6435
▁Оба	-10.6436
▁делам	-10.6436
ir	-10.644
жать	-10.644
▁красив	-10.6448
двор	-10.6452
китайской	-10.646
▁база	-10.6463
▁мужчина	-10.6463
▁обе	-10.6464
▁открыто	-10.6465
▁всяком	-10.6472
▁въезда	-10.6474
енных	-10.6474
▁цене	-10.6478
▁Одна	-10.6484
▁Мар	-10.6486
▁Энгельс	-10.6486
▁продюсер	-10.6486
▁приблизительно	-10.6486
▁разумеется	-10.6487
▁Представители	-10.6487
▁Донецк	-10.6487
▁поздно	-10.6487
▁хочешь	-10.6487
▁отчёт	-10.6487
▁следовательно	-10.6487
▁слав	-10.6488
▁возникают	-10.6488
министра	-10.6488
▁распределения	-10.6488
▁стиля	-10.6488
▁снег	-10.6489
▁штук	-10.6491
▁размещения	-10.6492
▁Mo	-10.6494
▁Госдумы	-10.6495
▁осуществля	-10.6496
▁обита	-10.6497
ируется	-10.6498
▁Институт	-10.65
▁сидел	-10.6501
▁экономического	-10.6502
▁положении	-10.6506
▁железной	-10.6507
▁выражение	-10.6507
▁полагают	-10.6508
▁груз	-10.6519
▁молекулы	-10.6519
▁основу	-10.652
▁способности	-10.652
▁оборон	-10.6521
▁роз	-10.6522
▁прочим	-10.6524
▁информационно	-10.6527
▁Геракл	-10.6532
▁игре	-10.6534
▁Люди	-10.6536
ограф	-10.6536
▁прибыль	-10.6538
▁представлять	-10.6547
▁Сэм	-10.6548
▁Пан	-10.6552
нного	-10.6553
чески	-10.6555
▁диалог	-10.6557
▁политике	-10.6559
▁коллектива	-10.6565
яться	-10.6576
▁подобно	-10.6576
▁классик	-10.6577
▁поддерживает	-10.6583
▁оставить	-10.6584
▁народов	-10.6585
езд	-10.6585
28	-10.6587
▁судебно	-10.6589
▁варианты	-10.6597
▁32	-10.6598
▁бред	-10.6599
▁пары	-10.6601
▁спортивно	-10.6604
▁системой	-10.6608
▁языком	-10.6616
есь	-10.662
▁строить	-10.6624
Как	-10.6625
▁проводит	-10.6626
▁Буд	-10.6626
иан	-10.6627
бит	-10.6627
иг	-10.6629
▁известны	-10.663
▁знали	-10.6631
▁ценность	-10.6632
▁Гу	-10.6632
▁подписал	-10.6638
▁разными	-10.6639
нож	-10.6643
▁резерв	-10.6645
▁имела	-10.6645
▁международно	-10.6647
▁Над	-10.6649
▁пожалуй	-10.6649
▁преподаватель	-10.665
▁Толоконникова	-10.665
▁зрителей	-10.665
▁корабль	-10.665
▁решении	-10.665
▁топлива	-10.665
▁списке	-10.665
▁отмечают	-10.665
▁Сначала	-10.665
▁учения	-10.6651
▁насилия	-10.6651
ального	-10.6651
▁собственным	-10.6651
▁сооружений	-10.6652
▁прекратить	-10.6652
▁полтора	-10.6652
▁запах	-10.6653
атов	-10.6653
▁Анны	-10.6655
▁сумел	-10.6655
▁английском	-10.6659
▁июне	-10.666
▁Израиль	-10.6664
▁собрание	-10.6666
▁третьего	-10.6667
▁Re	-10.6667
▁применяются	-10.6667
▁угрозы	-10.6668
▁объясняется	-10.667
▁точка	-10.6671
▁транс	-10.6674
▁национальных	-10.6675
5%	-10.6677
▁телеканала	-10.6677
▁скандал	-10.668
▁независимость	-10.668
ацию	-10.668
▁Союз	-10.6689
вез	-10.6689
▁военного	-10.6693
▁интеллектуальн	-10.6693
нными	-10.6702
▁сборов	-10.6703
Что	-10.6705
чуть	-10.6706
▁склада	-10.6708
▁активны	-10.6709
▁вырос	-10.6713
вшееся	-10.6713
▁пытают	-10.6716
▁стены	-10.6716
▁сообщила	-10.6723
▁Бр	-10.6723
▁земель	-10.6726
▁адвокат	-10.6726
▁перес	-10.6728
▁размера	-10.6731
▁секунд	-10.6731
дь	-10.6731
▁газет	-10.6733
кто	-10.6733
▁входят	-10.6736
берг	-10.6738
▁кодекса	-10.6738
ори	-10.6739
▁школ	-10.6739
▁Зна	-10.6739
:00	-10.6741
клад	-10.6744
▁классов	-10.6746
▁стороной	-10.6748
▁выбрать	-10.6754
▁Ст	-10.6757
▁гроз	-10.6758
▁религиозны	-10.6759
▁романе	-10.6764
▁вопросу	-10.6769
▁любил	-10.6771
▁плюс	-10.6775
▁дух	-10.6776
▁Св	-10.6776
▁художественно	-10.6779
▁кое	-10.6789
▁отношениях	-10.6792
▁правилам	-10.6796
▁времен	-10.6797
co	-10.6799
▁создает	-10.6805
ga	-10.6805
▁использует	-10.6807
▁заряд	-10.6808
ляет	-10.6809
▁корреспондент	-10.6811
ведено	-10.6812
▁разработан	-10.6813
▁iPhone	-10.6817
▁Впервые	-10.6817
▁индекс	-10.6817
▁подлежат	-10.6817
▁ближе	-10.6817
▁рекламу	-10.6817
▁действовать	-10.6817
▁Топалов	-10.6817
▁ВВП	-10.6817
▁Хорошо	-10.6817
▁природе	-10.6818
▁высокий	-10.6819
▁любят	-10.682
▁аргумент	-10.6821
унд	-10.6821
▁стоят	-10.6823
▁раствор	-10.6824
▁Наталья	-10.6824
▁созданию	-10.6826
экономическ	-10.6827
▁посеща	-10.6829
▁бросил	-10.683
▁клиент	-10.6832
▁прошли	-10.6833
▁Сил	-10.6833
▁любых	-10.6835
X	-10.6837
▁показатель	-10.6837
▁разница	-10.6839
▁высказывания	-10.6841
фф	-10.6842
▁Данны	-10.6842
▁мама	-10.6843
▁имеющие	-10.6844
▁районов	-10.6847
ъезд	-10.6847
▁потребность	-10.6848
Вы	-10.6848
▁нахождения	-10.685
▁построить	-10.685
▁мое	-10.6851
▁борьба	-10.6853
▁введение	-10.6854
▁Тот	-10.6856
▁золота	-10.686
▁признаки	-10.6863
▁бесед	-10.6863
тянул	-10.6864
▁обязанность	-10.6869
▁установлены	-10.687
▁определен	-10.6871
▁жило	-10.6873
▁опасны	-10.6874
енную	-10.6874
▁Руси	-10.6875
▁Великой	-10.6876
▁возле	-10.6881
02	-10.6884
▁военно	-10.6887
▁составит	-10.6888
▁сотрудник	-10.6889
▁введении	-10.689
▁религиозных	-10.6892
mo	-10.6897
▁хлеб	-10.6897
▁определённы	-10.6899
▁глазах	-10.6902
▁назвали	-10.6904
▁назван	-10.6913
раг	-10.6913
▁русским	-10.6915
▁считали	-10.6916
▁Евросоюза	-10.6916
уществует	-10.6917
▁учитель	-10.6918
▁ху	-10.6925
▁отказа	-10.6933
▁водой	-10.6936
▁артист	-10.6936
ике	-10.6937
▁Медведева	-10.6938
▁приговор	-10.6939
зен	-10.6941
право	-10.6948
▁зуб	-10.6948
▁третьем	-10.6951
▁ею	-10.6953
▁разговора	-10.6953
▁элит	-10.6955
▁подобное	-10.6958
▁ад	-10.696
▁кофе	-10.6962
▁выходил	-10.6963
▁чист	-10.6963
▁отлича	-10.6968
мана	-10.6969
▁работой	-10.6969
▁Тан	-10.6974
▁кафе	-10.6976
цами	-10.6976
▁полов	-10.6976
▁част	-10.6979
ходились	-10.6983
▁Сибири	-10.6987
▁территорий	-10.6987
▁внимательно	-10.6987
▁решению	-10.6987
▁Другие	-10.6987
▁знаем	-10.6987
▁человеческой	-10.6987
▁ехать	-10.6987
▁избирателей	-10.6987
▁надеюсь	-10.6987
▁счастья	-10.6987
▁учителя	-10.6987
▁ждать	-10.6988
▁вероятность	-10.6989
▁Александрович	-10.6989
▁показателей	-10.6989
▁собираются	-10.699
▁учреждение	-10.6991
сор	-10.6992
▁присутствие	-10.6992
▁//	-10.6995
▁заместитель	-10.6996
▁формул	-10.6996
▁сильны	-10.6998
▁изготовления	-10.6998
разу	-10.6998
▁Главное	-10.7
▁бок	-10.7002
▁чувствует	-10.7004
▁избежать	-10.7004
▁карт	-10.7004
▁руководства	-10.7004
▁шут	-10.7004
▁Юрия	-10.7006
▁вернуть	-10.701
▁согласия	-10.7013
▁представителями	-10.7013
цел	-10.7014
▁губ	-10.7015
▁депутатов	-10.7018
▁музыканты	-10.7018
▁предпринимателя	-10.7022
▁подобн	-10.7022
▁плит	-10.7024
▁музыкантов	-10.7024
▁жест	-10.7028
▁Большого	-10.7029
▁зелен	-10.7031
▁победу	-10.7032
▁превратил	-10.7035
ton	-10.7041
ёшь	-10.7041
▁основы	-10.7043
▁сыр	-10.7044
▁Шу	-10.7044
▁крупные	-10.7046
▁75	-10.7049
▁Ос	-10.7053
ива	-10.7057
▁некое	-10.706
▁акта	-10.706
▁вечера	-10.7062
▁Ma	-10.7064
▁рассчитан	-10.7064
tion	-10.7065
▁применять	-10.7065
дри	-10.7072
▁паровоз	-10.7076
онный	-10.7078
ke	-10.7083
▁капитан	-10.7088
89	-10.709
▁дополнительных	-10.7092
чем	-10.7093
▁Париже	-10.7094
▁подверг	-10.7096
▁дохода	-10.7103
▁авторитет	-10.7106
▁визита	-10.7106
рек	-10.7107
▁учебны	-10.7109
▁край	-10.7109
▁ключевы	-10.7111
▁определённо	-10.7113
▁весел	-10.7114
▁мод	-10.7114
▁общим	-10.7118
▁однозначно	-10.7118
▁85	-10.7124
нную	-10.7126
▁Юнайтед	-10.7129
силь	-10.7133
▁знаков	-10.7133
▁ран	-10.7134
ведения	-10.7141
ственно	-10.7144
▁популярность	-10.7151
▁развива	-10.7151
▁изобража	-10.7151
▁мужик	-10.7152
che	-10.7156
ТАСС	-10.7159
▁борьбу	-10.7159
▁воспользоваться	-10.7159
▁восприятия	-10.7159
▁подлежит	-10.7159
▁разработку	-10.7159
▁январе	-10.7159
▁заболевания	-10.7159
▁Испании	-10.7159
▁судьба	-10.7159
▁МИД	-10.7159
▁уменьш	-10.7159
▁непонятно	-10.7159
▁Азии	-10.716
▁сферы	-10.716
▁зависимость	-10.716
▁1994	-10.716
▁вспомнить	-10.716
▁вершин	-10.7161
▁популярности	-10.7161
▁чтение	-10.7163
▁постановки	-10.7163
▁описания	-10.7165
ывает	-10.7167
▁современном	-10.7167
▁читателей	-10.7173
▁ставить	-10.7174
▁утверждал	-10.7175
▁электронных	-10.7176
тельная	-10.7178
▁файл	-10.7179
▁службу	-10.7186
фин	-10.7187
▁ума	-10.7187
жиг	-10.7188
чев	-10.7191
▁дорогу	-10.7192
▁компьютера	-10.7193
▁простых	-10.7193
▁Жан	-10.7197
man	-10.7201
27	-10.7203
▁километров	-10.7204
▁главой	-10.7205
▁потребления	-10.7208
▁роди	-10.7209
▁вызван	-10.721
▁панк	-10.721
▁соседни	-10.7211
▁звезд	-10.7213
▁спать	-10.7213
▁преступн	-10.7214
▁всяки	-10.7215
▁ковчег	-10.7217
опыт	-10.7218
ино	-10.7218
▁физических	-10.7218
▁выпустил	-10.7222
▁советник	-10.7225
▁восьми	-10.7225
▁лист	-10.7227
ётся	-10.7237
ическую	-10.724
▁In	-10.7242
руд	-10.7249
▁сказали	-10.7249
4.	-10.7251
ивают	-10.7251
чного	-10.7254
▁Мол	-10.7257
центр	-10.7263
▁хит	-10.7264
7%	-10.7264
▁распространен	-10.7269
▁флаг	-10.7269
▁горе	-10.7276
▁важным	-10.7279
▁нарушением	-10.7281
▁титул	-10.7292
▁Хан	-10.73
демократ	-10.7308
чкой	-10.7309
▁полномочия	-10.7311
▁фи	-10.7312
32	-10.7315
▁ар	-10.7315
▁составлял	-10.7318
▁острове	-10.732
▁административн	-10.7321
▁транспорт	-10.7325
нёс	-10.7326
▁обеспечивает	-10.7327
▁Алекс	-10.7328
▁горяч	-10.7329
▁прозрачн	-10.7332
счет	-10.7334
▁рецепт	-10.7334
▁Возрождения	-10.7334
▁КНДР	-10.7334
▁ФИДЕ	-10.7334
▁августе	-10.7334
▁аудиторию	-10.7334
▁российская	-10.7334
▁Алехин	-10.7334
▁полиция	-10.7335
▁последним	-10.7335
▁карман	-10.7335
▁десятилетия	-10.7335
▁чтения	-10.7335
▁легче	-10.7336
▁ДНК	-10.7336
▁уведомления	-10.7336
▁отделения	-10.7337
▁обладают	-10.7338
▁вещей	-10.7339
▁удовлетворения	-10.7339
▁будучи	-10.7339
▁вижу	-10.7339
▁возможным	-10.734
▁экологическ	-10.734
▁автоматически	-10.7343
▁хорошие	-10.7343
▁прочие	-10.7344
▁встречается	-10.7345
▁принимал	-10.7345
▁чай	-10.7346
▁другому	-10.7347
▁сообщество	-10.7347
▁признания	-10.7348
▁выступать	-10.7349
▁улицы	-10.735
▁изучение	-10.7352
▁паровоза	-10.7353
▁ликвидации	-10.7354
▁характерно	-10.7354
▁понимают	-10.7355
▁дала	-10.7356
кос	-10.7359
▁внезапно	-10.736
▁минуту	-10.736
▁видам	-10.7364
▁Бур	-10.7365
▁передать	-10.7365
Юнайтед	-10.7365
▁основой	-10.7367
ФЗ	-10.7367
▁Год	-10.7374
▁помещениях	-10.7374
▁http	-10.7375
4%	-10.7378
▁планеты	-10.7378
▁производить	-10.7379
▁природны	-10.7381
▁многое	-10.7381
▁свин	-10.7382
РА	-10.7382
▁пришла	-10.7383
▁функционально	-10.7384
▁основа	-10.7384
▁ан	-10.7391
▁станция	-10.7391
▁технических	-10.7397
▁политические	-10.7397
гиб	-10.7399
▁сохраня	-10.74
▁вперёд	-10.74
▁север	-10.7401
▁f	-10.7401
▁герои	-10.7401
ьян	-10.7403
▁55	-10.7405
▁призван	-10.7408
рош	-10.741
▁океан	-10.741
▁ново	-10.7414
ичность	-10.7416
▁альбома	-10.7418
ителя	-10.7418
▁тонко	-10.7419
высоких	-10.7419
▁бой	-10.742
пин	-10.7425
Золот	-10.7428
▁свободно	-10.743
▁необходимым	-10.7436
▁Крыма	-10.7436
▁политическим	-10.7442
▁избран	-10.7444
▁протокол	-10.7444
▁b	-10.7447
▁график	-10.745
▁чемпионата	-10.7451
ll	-10.7452
▁наложение	-10.7452
▁кабинет	-10.7455
▁годом	-10.7457
▁рано	-10.7461
▁Хар	-10.7464
▁участник	-10.7465
▁объяснил	-10.7466
▁указанн	-10.7467
▁Русско	-10.7467
▁600	-10.7471
▁большими	-10.7473
▁плод	-10.7473
▁самолёт	-10.7477
▁---	-10.7478
шиб	-10.748
ступление	-10.7487
опер	-10.7489
▁изображен	-10.7493
▁называть	-10.7496
▁кровь	-10.7496
▁служ	-10.7499
зо	-10.75
▁вод	-10.7505
▁бесконечно	-10.7509
▁стимул	-10.751
▁Кирилл	-10.7511
▁избирательн	-10.7512
▁НАСА	-10.7513
▁заметить	-10.7513
▁разработке	-10.7513
▁фестиваль	-10.7513
▁музее	-10.7513
▁областях	-10.7513
▁хотите	-10.7513
▁оценку	-10.7513
▁слегка	-10.7513
▁Киприан	-10.7513
▁Налогов	-10.7513
▁экономика	-10.7514
▁Всемирн	-10.7514
▁изучения	-10.7515
ено	-10.7515
▁производителя	-10.7515
▁имеем	-10.7515
▁положений	-10.7515
▁исполнении	-10.7515
▁отличаются	-10.7516
▁формирование	-10.7518
▁равн	-10.7518
▁понятий	-10.7519
▁июле	-10.7519
▁экипажа	-10.7519
▁встречаются	-10.752
днюю	-10.7523
▁началось	-10.7523
▁признании	-10.7524
▁Анатолий	-10.7525
▁приходят	-10.7525
▁папа	-10.7525
▁ветра	-10.7527
▁поможет	-10.7527
77	-10.7528
▁схемы	-10.7528
▁закону	-10.7529
▁источники	-10.7529
они	-10.7531
▁груди	-10.7531
▁огонь	-10.7531
▁поднять	-10.7531
ницей	-10.7533
▁определяются	-10.7533
▁крестьян	-10.7534
▁помог	-10.7535
▁(18	-10.7536
▁Mail	-10.7536
опрек	-10.7539
▁муниципальных	-10.7543
▁Гражданск	-10.7543
▁37	-10.7546
▁занятие	-10.7546
▁форум	-10.7547
▁обработки	-10.7548
▁паспорт	-10.7551
бед	-10.7552
▁открытие	-10.7554
ставлен	-10.7556
▁ответы	-10.7557
▁специалисты	-10.7557
▁московск	-10.7562
ируются	-10.7564
▁библиотеки	-10.7566
ne	-10.7567
▁мэра	-10.7571
▁Мадонна	-10.7573
▁наука	-10.7577
▁практическ	-10.7581
▁доходы	-10.7584
зван	-10.7587
▁пуст	-10.759
▁продажу	-10.759
▁силами	-10.7593
▁одних	-10.7593
▁технические	-10.7602
▁широки	-10.7604
▁оригинальн	-10.7604
▁субъективно	-10.7604
ni	-10.7604
▁экономические	-10.7605
держан	-10.7606
▁рейтинге	-10.7607
▁эль	-10.7613
▁правом	-10.7615
▁священник	-10.7615
▁Большой	-10.7619
вещ	-10.762
▁делается	-10.762
▁горд	-10.762
чной	-10.7623
▁сопровожда	-10.7626
▁заключа	-10.7627
35	-10.7628
▁выплат	-10.763
▁кус	-10.7633
▁открытым	-10.7641
▁изменил	-10.7641
▁массив	-10.7642
▁Буш	-10.7644
▁убил	-10.7645
▁Работа	-10.7648
дей	-10.7649
▁урок	-10.765
▁указанно	-10.765
▁автобус	-10.7652
▁истинно	-10.7653
▁факты	-10.7656
нок	-10.7657
▁героя	-10.7657
▁яв	-10.7662
▁масс	-10.7664
▁планет	-10.767
▁простой	-10.7672
ческой	-10.7675
▁принимают	-10.768
▁обыкновенно	-10.7682
▁цеп	-10.7684
▁приоритет	-10.7685
НИ	-10.7686
▁комплекса	-10.7687
enta	-10.7689
▁экипаж	-10.7689
▁появление	-10.769
▁XVI	-10.7694
▁Митрофан	-10.7695
▁понимание	-10.7695
▁короля	-10.7695
▁сильнее	-10.7695
▁однажды	-10.7695
▁1995	-10.7696
▁Метод	-10.7696
▁1993	-10.7696
▁учёные	-10.7696
▁Ми	-10.7696
▁несчастн	-10.7697
▁сторонников	-10.7698
▁увеличить	-10.7698
ище	-10.7698
▁английского	-10.7698
2)	-10.7698
▁наблюдается	-10.7698
▁тщательно	-10.7698
▁промышленности	-10.7699
▁прокат	-10.7699
▁среда	-10.7699
▁виз	-10.7699
▁экз	-10.77
налогов	-10.7706
▁любые	-10.7707
▁сущности	-10.7708
прощ	-10.7708
▁Евгений	-10.771
летия	-10.7711
поло	-10.7711
▁точку	-10.7711
▁смех	-10.7716
▁проживания	-10.7718
▁берегу	-10.772
чиков	-10.7721
ex	-10.7721
▁меньшей	-10.7723
ent	-10.7724
▁останов	-10.7727
▁проводится	-10.7728
ролл	-10.7729
▁порог	-10.7732
▁проекте	-10.7735
▁выполнять	-10.7736
▁шел	-10.7736
ких	-10.7739
▁News	-10.7745
▁открытия	-10.7745
▁компьютеров	-10.7746
▁чиновники	-10.7752
▁западной	-10.7753
ывают	-10.7753
▁вниз	-10.7754
▁мотивам	-10.7757
несли	-10.776
пас	-10.776
▁дефицит	-10.7761
▁прибыл	-10.7761
▁переводчик	-10.7764
▁различн	-10.7764
▁физики	-10.7766
▁46	-10.7767
▁Фор	-10.777
▁ведут	-10.777
99	-10.777
вест	-10.7771
▁OS	-10.7772
▁выгод	-10.7777
плав	-10.778
▁порой	-10.778
▁захват	-10.7785
▁Ваше	-10.7787
▁сообщают	-10.7787
▁структуру	-10.7787
▁выводу	-10.7794
▁подлинн	-10.7796
ему	-10.7796
▁начался	-10.7797
оне	-10.7797
▁районах	-10.7798
▁посмотрел	-10.7803
▁аналог	-10.7804
жение	-10.7808
▁Жен	-10.781
▁солнце	-10.7811
▁склон	-10.7815
овской	-10.7817
Йорк	-10.7821
▁началом	-10.7822
▁убийство	-10.7826
▁Co	-10.7827
▁меша	-10.7828
▁черты	-10.783
▁зло	-10.7834
▁решением	-10.7838
▁Много	-10.7838
тера	-10.7838
ow	-10.7839
▁39	-10.7841
▁веры	-10.7841
▁ключ	-10.7844
▁контента	-10.7845
линг	-10.7845
▁повод	-10.7845
▁континент	-10.7846
▁крут	-10.7848
гнал	-10.7852
дина	-10.7855
▁государственным	-10.7856
▁получат	-10.7861
▁примет	-10.7869
▁предмета	-10.787
ющему	-10.787
▁(1	-10.7872
городской	-10.7877
цкий	-10.7879
ведён	-10.7879
▁Израиля	-10.788
▁КоАП	-10.788
▁Проблема	-10.788
▁искренне	-10.788
▁согласны	-10.788
▁сомнения	-10.788
▁предлагал	-10.788
▁достичь	-10.788
▁Благодар	-10.788
▁почте	-10.788
▁Другим	-10.7881
▁блог	-10.7881
▁помогает	-10.7881
стями	-10.7882
▁Times	-10.7882
▁акция	-10.7882
ителей	-10.7885
▁персонажей	-10.7886
▁видом	-10.7889
▁выступление	-10.7889
▁добавить	-10.789
От	-10.7891
нцев	-10.7891
▁служил	-10.7893
▁обоих	-10.7893
▁формируется	-10.7894
▁исключено	-10.7894
▁западных	-10.7895
▁ответить	-10.7897
▁свойство	-10.7897
▁дорож	-10.7897
▁государственный	-10.7898
▁темно	-10.7899
▁исторически	-10.7899
▁навсегда	-10.7901
▁Государственны	-10.7902
▁Гер	-10.7902
")	-10.7906
▁бога	-10.7912
▁Мария	-10.7913
▁комитет	-10.7914
ывал	-10.7915
▁кара	-10.7915
▁визит	-10.7917
▁прекращения	-10.7919
▁лишен	-10.7921
евич	-10.7921
▁Чу	-10.7923
▁итоги	-10.7923
▁юридически	-10.793
▁психо	-10.7932
▁дополнительно	-10.7933
▁снят	-10.7933
▁прогресс	-10.7933
▁машине	-10.7937
бал	-10.7941
▁контекст	-10.7942
▁финансовых	-10.7943
▁икон	-10.7943
▁прод	-10.7946
▁варианта	-10.7949
▁формат	-10.7949
▁Борхес	-10.795
▁Первым	-10.7951
конференции	-10.7953
▁страницы	-10.7956
▁Сама	-10.7956
ивания	-10.7956
▁сход	-10.7957
бат	-10.7959
▁чувствовал	-10.7961
▁преврати	-10.7967
▁разрушен	-10.7967
▁всякий	-10.7968
▁ограничение	-10.7972
▁молитв	-10.7975
▁передаче	-10.7977
▁храм	-10.7979
запад	-10.7984
▁популярн	-10.7986
▁рекламны	-10.7987
▁физик	-10.7988
рест	-10.7991
▁использоваться	-10.7994
▁гроб	-10.7997
▁газов	-10.7997
▁установленн	-10.8
▁Первое	-10.8001
▁марк	-10.8001
▁тел	-10.8001
ca	-10.8006
нте	-10.8006
кси	-10.8007
▁обязаны	-10.8007
▁дым	-10.8008
▁тепло	-10.8008
▁планов	-10.8012
▁34	-10.8015
▁добро	-10.8017
кладывать	-10.8022
нист	-10.8023
▁низко	-10.8024
ходить	-10.8027
▁g	-10.8031
▁пола	-10.8032
▁принадлежащи	-10.8033
▁Ирана	-10.8035
▁похож	-10.8036
▁субъекта	-10.8037
рал	-10.8046
▁собственность	-10.8058
щики	-10.806
son	-10.8061
▁каз	-10.8061
▁узнал	-10.8065
▁выполнен	-10.8066
енного	-10.8067
▁Роттен	-10.8069
▁автомобиля	-10.8069
▁Group	-10.8069
▁Берлускони	-10.8069
▁епископ	-10.8069
▁каждую	-10.8069
▁отсутствует	-10.8069
▁охраны	-10.8069
▁поддержке	-10.8069
▁состоянию	-10.8069
▁позиций	-10.8069
▁Позже	-10.8069
▁строения	-10.8069
▁Европу	-10.8069
▁одинаково	-10.8069
▁энергетики	-10.8069
▁услышал	-10.8069
▁МГУ	-10.807
▁предоставить	-10.807
▁вдоль	-10.807
▁высокие	-10.807
▁следующих	-10.807
▁пройдет	-10.8071
ww	-10.8071
▁платье	-10.8072
▁сетей	-10.8072
▁разобраться	-10.8072
▁результатам	-10.8073
▁новости	-10.8074
▁продолжить	-10.8074
очи	-10.8076
▁спец	-10.8076
ve	-10.8078
▁отрицательно	-10.8079
▁вышли	-10.808
друж	-10.8084
▁поддерживать	-10.8086
▁самих	-10.8086
▁нынешнего	-10.8086
▁попасть	-10.8088
▁10%	-10.8089
▁луч	-10.809
▁физически	-10.8092
▁слушать	-10.8093
hi	-10.8093
▁слаб	-10.8099
▁таможенных	-10.8103
▁свод	-10.8103
▁Пример	-10.8103
▁конкретного	-10.8107
▁пределы	-10.8107
▁сел	-10.8107
▁английский	-10.811
▁запланирован	-10.8112
▁Википедии	-10.8113
▁120	-10.8113
▁видели	-10.8114
чувств	-10.8114
▁элементарны	-10.8114
коло	-10.8118
▁турист	-10.8118
▁попал	-10.8123
тивно	-10.8123
зова	-10.8127
▁палат	-10.8129
▁указание	-10.8131
▁Город	-10.8132
▁Ba	-10.8133
▁Таки	-10.8133
▁Бол	-10.8134
▁технология	-10.8139
ee	-10.814
вшее	-10.8147
▁золото	-10.8153
уса	-10.8155
▁обязательства	-10.8155
эл	-10.8159
рут	-10.8161
▁to	-10.8162
▁чер	-10.8164
65	-10.8174
▁Тра	-10.8175
▁карте	-10.8176
▁почита	-10.8177
ёк	-10.8183
▁обеспечен	-10.8186
▁перестал	-10.8187
▁выпущен	-10.8187
▁параллельно	-10.8189
вшую	-10.8191
nt	-10.8194
▁успели	-10.8196
▁стремление	-10.8196
▁контексте	-10.8198
▁изображение	-10.8199
▁актив	-10.82
дни	-10.82
▁региональны	-10.8201
▁дев	-10.8203
▁70-	-10.8204
▁образова	-10.8207
фик	-10.8213
▁корм	-10.8216
▁значительн	-10.8217
▁передан	-10.8218
стрел	-10.8219
▁уровней	-10.822
▁относи	-10.8224
▁рыб	-10.8226
▁экран	-10.8226
▁Мало	-10.8227
оди	-10.823
нке	-10.8235
▁требуют	-10.8237
▁Мон	-10.8238
▁диплом	-10.8239
овую	-10.8243
▁ветер	-10.8246
▁областн	-10.8247
▁номера	-10.8248
▁порно	-10.8248
торг	-10.8249
▁Ши	-10.8249
▁виртуальн	-10.8252
▁соответствие	-10.8253
▁покой	-10.8254
час	-10.8258
кина	-10.826
▁Макларен	-10.8261
▁Толоконниковой	-10.8261
▁наличия	-10.8261
▁уточнил	-10.8261
▁непременно	-10.8261
▁понимания	-10.8261
▁Последний	-10.8261
▁версию	-10.8261
▁оттуда	-10.8261
▁свыше	-10.8261
▁теракт	-10.8261
▁Индии	-10.8261
▁лучший	-10.8261
▁оставаться	-10.8262
▁штаб	-10.8262
▁выбрал	-10.8263
▁команду	-10.8263
▁платежей	-10.8263
▁тёмно	-10.8263
▁сделает	-10.8264
▁нигде	-10.8265
обо	-10.8266
▁проходят	-10.8266
▁Причем	-10.8267
▁полученны	-10.8267
▁международн	-10.8268
▁привлечь	-10.8269
▁Московской	-10.8269
▁середины	-10.8272
▁девять	-10.8276
▁приложения	-10.8281
▁спортсменов	-10.8282
▁обед	-10.8282
▁долга	-10.8284
▁примера	-10.8285
щение	-10.8288
▁зл	-10.8288
иш	-10.8292
▁должности	-10.8292
зин	-10.8293
▁угроза	-10.8295
▁посвящённ	-10.8296
▁православн	-10.8296
▁создаёт	-10.8298
▁распределение	-10.8301
▁словом	-10.8301
▁поднял	-10.8303
▁жены	-10.8304
▁стара	-10.8305
▁персональны	-10.8307
▁жидк	-10.8311
йдут	-10.8312
▁следующей	-10.8312
▁предметов	-10.8314
▁продолжается	-10.8314
▁слухи	-10.8314
следственн	-10.8318
▁продавать	-10.8319
▁прибор	-10.832
стен	-10.8321
▁странице	-10.8322
▁кода	-10.8325
▁округа	-10.8325
▁Леонид	-10.8327
ens	-10.8334
▁впереди	-10.8334
кладыва	-10.8335
▁личных	-10.8335
части	-10.8337
▁хозяин	-10.8338
▁ущерб	-10.8338
▁Питер	-10.834
all	-10.8341
▁платить	-10.8344
▁St	-10.8346
водится	-10.8346
чную	-10.8346
The	-10.8352
▁организм	-10.8352
несения	-10.8354
▁веру	-10.8354
▁использовал	-10.8363
▁Спас	-10.8363
курс	-10.8367
▁рассказывал	-10.8368
▁обязательств	-10.8368
▁пас	-10.8368
▁отрыв	-10.8368
▁фактор	-10.837
▁исп	-10.8374
▁теми	-10.8378
анти	-10.838
▁попросил	-10.8381
▁опроверг	-10.8383
▁полёта	-10.8393
▁специальные	-10.8393
тверд	-10.8396
▁платы	-10.8401
При	-10.8402
▁Стал	-10.8402
▁указывают	-10.8402
коммун	-10.8406
нга	-10.8407
фак	-10.8411
▁известные	-10.8413
▁регион	-10.8417
▁произведен	-10.8425
▁важное	-10.8426
▁жизнью	-10.8428
▁объективн	-10.8431
▁офицер	-10.8432
▁пря	-10.8434
▁квадрат	-10.8434
▁указ	-10.8436
▁факультет	-10.8438
▁вагон	-10.844
▁Ro	-10.8443
▁активность	-10.8444
ющими	-10.8444
▁ведет	-10.8445
▁влиянием	-10.8448
▁городу	-10.845
▁историческ	-10.8451
▁занимают	-10.8456
▁Android	-10.8457
▁дискуссии	-10.8457
▁ноутбук	-10.8457
▁Сильвер	-10.8457
▁добровольно	-10.8457
▁собственную	-10.8457
▁хотим	-10.8457
▁напрямую	-10.8457
▁появляются	-10.8457
▁заседания	-10.8457
66	-10.8458
▁Хи	-10.8458
▁Кам	-10.8458
▁осуществляют	-10.8459
▁хорошего	-10.8459
▁исключения	-10.8459
▁учреждений	-10.846
▁философии	-10.8462
был	-10.8463
▁правительству	-10.8465
▁Максим	-10.8466
▁неправильно	-10.8467
▁крив	-10.8469
▁частот	-10.8473
▁данное	-10.8474
▁септон	-10.8475
▁игроков	-10.8475
▁главная	-10.8476
▁активности	-10.8477
держать	-10.8477
▁адекватно	-10.8479
▁Фонд	-10.848
▁практику	-10.848
▁син	-10.8482
▁отправлен	-10.8483
▁превраща	-10.8483
▁самостоятельны	-10.8485
▁учёте	-10.8487
▁скор	-10.8489
▁окно	-10.8491
лении	-10.8492
▁даты	-10.8493
▁процессы	-10.8493
▁открыть	-10.8494
хожу	-10.8496
▁организован	-10.8497
▁архив	-10.8498
▁волос	-10.85
▁ссыла	-10.8501
▁премьера	-10.8502
овского	-10.8502
▁столб	-10.8502
внутреннего	-10.8505
▁приспособлен	-10.8507
▁предоставления	-10.8507
▁капитала	-10.8509
торов	-10.8511
после	-10.8511
▁композитор	-10.8513
▁преступника	-10.8516
▁доллар	-10.8517
▁центрально	-10.852
▁раздела	-10.8521
▁демон	-10.8521
▁журналисты	-10.8524
буд	-10.8525
▁сложн	-10.8526
▁инициативе	-10.8527
▁отчет	-10.8533
▁встреч	-10.8533
бен	-10.8534
▁44	-10.8538
▁Евросоюз	-10.854
▁разу	-10.8542
▁зала	-10.8546
io	-10.8547
▁снял	-10.8553
▁забот	-10.8554
▁Правила	-10.8555
▁президентски	-10.8555
читал	-10.8558
04	-10.856
▁представляется	-10.8562
▁трудом	-10.8563
▁разным	-10.8564
гора	-10.8569
▁выявлен	-10.857
ныне	-10.8581
альную	-10.8586
▁коллеги	-10.8591
▁Ростов	-10.8591
▁лап	-10.8591
▁территория	-10.8593
▁закрыты	-10.8593
оном	-10.8595
▁отдал	-10.8596
▁700	-10.8598
шина	-10.8599
голов	-10.8602
▁тайны	-10.8605
▁Больше	-10.8608
чных	-10.861
▁ресторан	-10.8612
▁держать	-10.8614
▁поезда	-10.8616
▁давление	-10.8616
▁смен	-10.8617
▁тираж	-10.862
▁душа	-10.862
▁рассказы	-10.8624
▁аукцион	-10.8632
▁финансовой	-10.8632
▁объектами	-10.8632
▁дыр	-10.8637
▁Васили	-10.8638
▁собран	-10.8638
Sh	-10.8639
▁расти	-10.8639
▁местом	-10.8641
чал	-10.8641
▁университете	-10.8642
ka	-10.8644
дается	-10.8644
ование	-10.8645
▁осуществлять	-10.8647
▁иска	-10.8648
▁позволяющи	-10.8648
▁отечественн	-10.8649
▁передает	-10.865
▁форума	-10.8652
▁методик	-10.8652
давая	-10.8654
нки	-10.8655
тряс	-10.8656
▁Каддафи	-10.8657
▁Нехлюдов	-10.8657
▁Серафим	-10.8657
▁Холидей	-10.8657
▁взаимодействие	-10.8657
▁лекции	-10.8657
▁множества	-10.8657
▁потребностей	-10.8657
▁просьбой	-10.8657
▁ООО	-10.8657
▁неизбежно	-10.8657
▁подростков	-10.8657
▁человечества	-10.8657
▁отражает	-10.8657
▁оценке	-10.8657
▁Тибет	-10.8657
▁проживающи	-10.8657
▁собственные	-10.8657
▁демократии	-10.8657
▁социальная	-10.8657
▁нередко	-10.8657
▁Нужно	-10.8657
▁прекратил	-10.8657
▁счастью	-10.8657
▁лучшие	-10.8658
▁патент	-10.8658
▁финансирования	-10.8658
▁Ничего	-10.8658
▁единственным	-10.8658
▁1997	-10.8658
▁обычным	-10.8658
▁обслуживания	-10.8658
▁четко	-10.8659
▁дерево	-10.8659
▁согласился	-10.8659
евосходительство	-10.866
▁проверить	-10.866
▁Банк	-10.8661
ue	-10.8661
▁аудитория	-10.8662
▁особенностей	-10.8662
▁осенью	-10.8662
▁американск	-10.8662
▁яйца	-10.8663
▁устал	-10.8664
▁эффективности	-10.8665
▁Первоначально	-10.8665
▁ничем	-10.8665
шко	-10.8666
▁обеих	-10.8666
▁климат	-10.8667
там	-10.8667
▁экземпляров	-10.8671
▁местности	-10.8671
▁совокупность	-10.8671
▁умеет	-10.8671
▁юридического	-10.8673
▁храма	-10.8674
▁Стран	-10.8675
▁поисковы	-10.8676
▁реализован	-10.8677
▁выделить	-10.8679
▁суду	-10.8679
▁помощник	-10.868
▁угрозу	-10.868
▁обсуждения	-10.868
систем	-10.8681
▁кандидатов	-10.8681
▁точности	-10.8681
▁Жив	-10.8682
▁рез	-10.8684
▁противоречия	-10.8686
▁молча	-10.8688
▁сцену	-10.8689
пали	-10.8689
▁синтеза	-10.8689
▁инструментов	-10.8694
чика	-10.8694
▁термина	-10.8695
▁катастрофы	-10.8697
▁Германия	-10.8697
▁основ	-10.8698
▁Думаю	-10.87
▁Крым	-10.8701
▁общи	-10.8702
▁бело	-10.8704
▁Мас	-10.8705
▁лег	-10.8705
▁технологически	-10.8715
▁границу	-10.8715
▁политический	-10.8716
▁Восточной	-10.8716
▁наблюда	-10.8717
вис	-10.8718
▁Новая	-10.8724
ИК	-10.8724
▁«...	-10.8725
▁целы	-10.873
▁сей	-10.8733
сказ	-10.8733
▁пытались	-10.8739
▁миссионер	-10.8742
кла	-10.8742
▁говорила	-10.8743
▁решила	-10.8743
▁проекту	-10.8744
ьные	-10.8747
▁1990-	-10.8747
▁запуск	-10.8755
ющем	-10.8757
▁Пар	-10.8758
▁татар	-10.8759
▁неза	-10.8764
▁валют	-10.8765
▁выводы	-10.8767
▁снять	-10.8773
ac	-10.8777
▁значим	-10.8783
▁Ярослав	-10.8785
▁шест	-10.8789
ber	-10.8795
▁автором	-10.8797
▁думает	-10.8799
▁38	-10.88
▁заявлял	-10.8801
8%	-10.8804
▁спутников	-10.881
▁духе	-10.881
мель	-10.881
ry	-10.8813
▁доклад	-10.8817
▁авторски	-10.8819
▁молекул	-10.8819
яется	-10.8819
оты	-10.8822
▁целев	-10.8822
▁Един	-10.8825
▁Хам	-10.8825
▁просмотр	-10.8826
▁Интернете	-10.8828
ывали	-10.883
уются	-10.883
▁организова	-10.8834
▁Ал	-10.8834
Де	-10.8834
▁рассматривать	-10.8841
▁эфира	-10.8842
▁мат	-10.8843
пала	-10.8844
▁пьян	-10.8846
▁Западе	-10.8849
цензур	-10.885
▁обязательны	-10.8854
▁купил	-10.8857
▁отрица	-10.8857
▁берега	-10.886
▁простым	-10.886
▁Эдуард	-10.8861
▁англичан	-10.8861
▁напомнил	-10.8861
▁наследия	-10.8861
▁явлений	-10.8861
▁Уилсон	-10.8861
▁деревне	-10.8861
▁модуля	-10.8861
▁орудий	-10.8861
▁оценить	-10.8861
▁печати	-10.8861
▁Последние	-10.8861
ИТАР	-10.8861
▁политическая	-10.8861
▁сетях	-10.8861
▁корпорации	-10.8862
▁XVIII	-10.8862
▁Чавес	-10.8862
▁существовать	-10.8862
▁проявления	-10.8862
▁сделка	-10.8863
▁дважды	-10.8863
▁бусин	-10.8863
▁пожалуйста	-10.8863
▁помещении	-10.8863
▁голосование	-10.8864
▁определил	-10.8864
▁покупать	-10.8864
ога	-10.8864
▁высших	-10.8864
▁выставки	-10.8864
▁переводе	-10.8865
▁Стивенсон	-10.8865
▁Цель	-10.8866
▁хорошее	-10.8867
▁Север	-10.8868
зол	-10.8869
▁приглашение	-10.8871
▁пользуются	-10.8871
лип	-10.8871
▁придется	-10.8872
▁действующе	-10.8872
▁живот	-10.8873
▁мешает	-10.8873
▁Отец	-10.8873
▁поручения	-10.8874
▁принятии	-10.8874
▁учитывая	-10.8874
▁условии	-10.8875
▁поездки	-10.8876
▁супер	-10.8876
▁состоялся	-10.8877
▁температуры	-10.8878
▁воспитание	-10.8879
▁падения	-10.8881
▁опира	-10.8883
▁заставил	-10.8887
бур	-10.8888
▁вывести	-10.8889
▁лауреат	-10.8891
▁реформы	-10.8894
▁московского	-10.8894
▁аренды	-10.8896
▁фестивале	-10.8896
▁уйти	-10.8899
свободных	-10.8899
рел	-10.89
▁предполагается	-10.8902
▁валюты	-10.8902
▁забыл	-10.8906
▁ожидал	-10.8907
23	-10.891
▁владельца	-10.891
▁карту	-10.8912
▁ужасно	-10.8913
▁h	-10.8914
da	-10.8915
▁телевизионн	-10.8916
▁частн	-10.8919
▁завершил	-10.8923
▁Ной	-10.8924
▁итогов	-10.8926
▁тесно	-10.8929
▁продукты	-10.8929
▁IV	-10.8931
▁незаконно	-10.8931
▁женой	-10.8932
▁деятельностью	-10.8932
▁нерв	-10.8934
▁производстве	-10.8934
▁делом	-10.8934
▁канон	-10.8936
▁воде	-10.8937
▁коки	-10.8937
▁желательно	-10.894
сам	-10.8941
▁достоинства	-10.8943
▁продаже	-10.8943
▁предоставлен	-10.8944
▁держит	-10.8944
пат	-10.8944
нулся	-10.8949
▁духовно	-10.8951
▁звон	-10.8952
▁выступал	-10.8953
пс	-10.8953
ведёт	-10.8955
▁затрат	-10.8961
▁хватит	-10.8962
лес	-10.8963
▁Тре	-10.8964
▁живет	-10.8964
▁поро	-10.8965
▁научной	-10.8965
ющееся	-10.8966
▁понимал	-10.8966
%.	-10.8966
▁налог	-10.8971
▁совершение	-10.8971
▁кра	-10.8975
Русск	-10.8979
▁мощность	-10.8981
▁ворот	-10.8981
▁Разве	-10.8982
▁достигнут	-10.8982
▁Богу	-10.8982
▁внесени	-10.8982
▁пояс	-10.8983
▁пьес	-10.8984
▁фронт	-10.8987
▁лев	-10.8988
▁обще	-10.8991
▁мягко	-10.8991
▁жизненн	-10.8991
▁раздраж	-10.8997
▁характерны	-10.8999
▁продан	-10.9001
▁моё	-10.9001
вым	-10.9002
▁теоретически	-10.9002
▁договору	-10.9002
▁рыночн	-10.9002
Йорке	-10.9003
енько	-10.9004
Около	-10.9004
давать	-10.9005
▁билет	-10.9007
▁члена	-10.9007
конституционного	-10.901
▁лу	-10.9011
1)	-10.9012
▁заключил	-10.9016
2,	-10.9017
▁восток	-10.9018
▁бре	-10.9018
▁днях	-10.9019
нты	-10.9024
▁УК	-10.9027
?"	-10.9028
▁Марка	-10.9031
альных	-10.9032
ким	-10.9032
▁суб	-10.9035
▁разработчик	-10.9042
лера	-10.9043
ЕР	-10.9045
▁Гал	-10.9048
▁объясняет	-10.9049
▁Ник	-10.9049
▁катастроф	-10.9049
▁Перво	-10.905
63	-10.9052
▁сообщается	-10.9053
▁Ян	-10.9056
▁кандидат	-10.9057
▁пал	-10.9058
▁черн	-10.906
▁запрещен	-10.9063
▁продолжать	-10.9064
▁пришло	-10.9068
Коммерсант	-10.9069
▁Абхазии	-10.9069
▁Руководств	-10.9069
▁бассейн	-10.9069
▁деталей	-10.9069
▁предстоит	-10.9069
▁расстояние	-10.9069
▁реакция	-10.9069
▁детектив	-10.9069
▁отвечать	-10.9069
▁географии	-10.9069
▁детали	-10.9069
▁бледн	-10.9069
▁учесть	-10.907
▁постановления	-10.907
▁корпорация	-10.907
▁запись	-10.907
▁спасибо	-10.907
▁организацию	-10.907
▁ощущения	-10.907
▁последовал	-10.907
▁Прежде	-10.907
▁изделие	-10.9071
▁формулировк	-10.9071
▁предотвращени	-10.9072
▁употребление	-10.9072
▁Владимирович	-10.9072
▁найма	-10.9073
▁вспомнил	-10.9076
est	-10.9076
бург	-10.9078
▁выступают	-10.9078
▁занятий	-10.908
▁Часть	-10.9081
▁главны	-10.9081
▁огромные	-10.9081
▁подтверждение	-10.9082
водят	-10.9083
▁любовн	-10.9084
▁начались	-10.9084
▁опор	-10.9084
▁совместн	-10.9085
▁готова	-10.9085
▁кругл	-10.9086
▁участниц	-10.9087
▁Рейн	-10.9087
▁полагает	-10.9089
кие	-10.9089
▁ареста	-10.9091
▁опасно	-10.9092
▁Николая	-10.9094
▁Ген	-10.9094
▁плакат	-10.9094
▁мораль	-10.9095
▁называемы	-10.9097
▁Янг	-10.9098
офи	-10.91
▁XVII	-10.9101
▁снимать	-10.9101
▁брон	-10.9104
▁эконом	-10.9105
▁днем	-10.9106
▁запрещено	-10.9106
▁оборот	-10.9108
▁We	-10.9109
▁исполнение	-10.911
▁рассматриваем	-10.9111
▁пород	-10.9111
▁плана	-10.9113
▁результата	-10.9114
▁принципов	-10.9115
J	-10.9115
▁массу	-10.9119
▁законны	-10.9121
▁пришел	-10.9122
▁водитель	-10.9123
▁шага	-10.9124
▁1970-	-10.9126
Y	-10.9128
▁гражданской	-10.9128
нести	-10.9132
▁защищать	-10.9133
▁играют	-10.9136
▁какими	-10.9136
▁кап	-10.9136
▁отряд	-10.9137
▁48	-10.9143
▁отдельн	-10.9143
▁писали	-10.9143
ённых	-10.9148
▁половину	-10.9148
▁общая	-10.9149
▁сектора	-10.915
▁вперед	-10.9152
▁аэропорт	-10.9155
▁условиям	-10.9155
бывший	-10.9155
▁выража	-10.9156
очные	-10.9156
▁Лондоне	-10.9156
▁кадров	-10.9159
▁Барт	-10.9167
▁сумм	-10.9169
▁начинал	-10.9174
нно	-10.9179
▁разрыв	-10.9183
сан	-10.9185
рост	-10.9188
спортивн	-10.9189
▁итальянск	-10.9189
▁откровенно	-10.9192
▁приведен	-10.9193
▁Сочи	-10.9193
▁дальнейше	-10.9195
прям	-10.9198
▁температура	-10.9198
▁забыв	-10.9198
▁часы	-10.9202
ошёл	-10.9203
ставить	-10.9204
▁принадлежат	-10.9205
▁исполнительны	-10.9206
▁многим	-10.9206
▁товарищ	-10.9209
▁идеально	-10.9209
38	-10.9209
▁перехода	-10.922
▁едино	-10.922
▁разрешен	-10.9222
▁оставил	-10.923
летней	-10.923
бран	-10.9231
▁корпуса	-10.9232
▁духов	-10.9233
▁предел	-10.9234
▁шаги	-10.924
▁проход	-10.9248
▁согласи	-10.9248
▁пове	-10.9249
▁окруж	-10.9253
▁делал	-10.9256
▁выдел	-10.9256
Петербург	-10.9256
▁судя	-10.9258
▁имеющих	-10.9258
▁предусматривает	-10.926
▁счета	-10.926
▁строк	-10.9261
▁фигура	-10.9261
ходил	-10.9263
▁De	-10.9263
▁врач	-10.9263
▁достойны	-10.9265
▁Нам	-10.9269
▁проводят	-10.9269
▁негативн	-10.9271
▁называли	-10.9272
▁спутник	-10.9274
ленд	-10.9279
уга	-10.928
▁эр	-10.928
▁STS	-10.9282
▁Раньше	-10.9282
▁деревья	-10.9282
▁комплект	-10.9282
▁отнюдь	-10.9282
▁рюкзак	-10.9282
▁сигарет	-10.9282
▁подготовке	-10.9282
▁Польши	-10.9282
▁сравнения	-10.9282
▁орудия	-10.9282
▁льгот	-10.9282
▁удастся	-10.9282
▁поколение	-10.9282
▁Одновременно	-10.9282
▁потребителей	-10.9282
▁удачно	-10.9283
▁Власти	-10.9283
▁операция	-10.9283
кого	-10.9283
▁тобой	-10.9284
▁абсурдологии	-10.9284
▁состоят	-10.9284
▁посетил	-10.9284
▁Председатель	-10.9285
▁развивается	-10.9287
▁крик	-10.929
лова	-10.929
▁прочего	-10.9291
▁Собственно	-10.9291
2%	-10.9291
▁возникла	-10.9292
▁красиво	-10.9292
ладелец	-10.9293
▁иным	-10.9293
▁удовлетворен	-10.9294
▁странами	-10.9294
▁трое	-10.9295
▁оснований	-10.9296
▁молодые	-10.9297
Московский	-10.9298
вёр	-10.9298
▁Al	-10.9299
▁руководителей	-10.9299
▁окажется	-10.9301
▁обсужда	-10.9302
▁пользователям	-10.9303
▁подсудимых	-10.9303
▁включен	-10.9304
▁глюкозы	-10.9304
▁использовали	-10.9304
▁предлагают	-10.9306
поль	-10.931
▁полную	-10.9311
ОД	-10.9312
манн	-10.9312
▁клиентов	-10.9314
▁заставить	-10.9315
▁облик	-10.9318
▁базу	-10.9319
▁безопасность	-10.9319
▁ящик	-10.932
▁усили	-10.9322
▁отечественной	-10.9323
▁содержать	-10.9325
▁рейтинга	-10.9327
ish	-10.9328
▁соответствующий	-10.9328
шняя	-10.933
▁узко	-10.9331
▁упомина	-10.9333
щая	-10.9334
▁тепл	-10.9337
▁запрета	-10.9337
▁персонажа	-10.9337
▁пользователь	-10.9338
▁определять	-10.9339
▁взяли	-10.9339
ce	-10.9341
▁взаимно	-10.9344
▁отмечается	-10.9344
▁шансы	-10.9347
ставлять	-10.9347
▁потреб	-10.9348
▁депутаты	-10.9348
▁больной	-10.9356
▁ожидания	-10.9357
▁запреща	-10.9359
▁принц	-10.936
иваются	-10.9361
▁полученных	-10.9363
гун	-10.9364
▁Tr	-10.9364
▁назначение	-10.9369
▁Y	-10.9369
▁наблюдать	-10.9371
▁обман	-10.9373
▁расследование	-10.9373
▁шаттла	-10.9375
▁Лес	-10.9376
цем	-10.9376
▁личного	-10.9377
вшуюся	-10.9378
▁Афганистана	-10.938
▁нужда	-10.938
проб	-10.9382
▁старик	-10.9388
▁считаются	-10.9393
▁ката	-10.9395
▁конституционны	-10.9395
Быт	-10.9404
▁чьи	-10.9404
▁страхов	-10.9404
▁открытый	-10.9406
▁специалист	-10.9408
▁актёр	-10.9409
▁добавлен	-10.941
▁поставили	-10.941
▁Ше	-10.9413
▁шок	-10.9416
бород	-10.9418
дание	-10.9422
▁Хе	-10.9422
ab	-10.9423
▁портал	-10.9434
▁лёгк	-10.9434
▁судебн	-10.9435
▁сделала	-10.9435
кру	-10.9436
▁страной	-10.9438
▁заговор	-10.9441
▁Кра	-10.9444
все	-10.9446
▁способы	-10.9449
▁пассажир	-10.945
9%	-10.9451
банк	-10.9452
▁убиты	-10.9458
▁тысячу	-10.9459
раста	-10.9461
орд	-10.947
▁Какие	-10.9474
строй	-10.9478
▁педагог	-10.9478
▁ставит	-10.9478
org	-10.948
▁строй	-10.9483
изированн	-10.9483
▁Минск	-10.9483
▁эмоционально	-10.9486
ation	-10.9488
▁юн	-10.949
53	-10.9491
▁устав	-10.9492
▁Яндекс	-10.9493
▁Юр	-10.9496
ировано	-10.9498
нье	-10.9499
▁последовательно	-10.9499
▁Очевидно	-10.95
▁администрация	-10.95
▁анекдот	-10.95
▁иностранцев	-10.95
▁сравнительно	-10.95
▁операций	-10.95
▁средний	-10.95
▁решено	-10.95
▁вышло	-10.95
▁маленький	-10.95
▁Фильм	-10.95
▁моделей	-10.95
▁Алексея	-10.95
▁содержанию	-10.95
▁Группа	-10.95
▁уехал	-10.95
▁девочка	-10.9501
▁поставленны	-10.9501
▁концерн	-10.9501
▁Позднее	-10.9501
▁1989	-10.9501
▁недалеко	-10.9501
▁баллов	-10.9502
▁критериев	-10.9502
▁Бал	-10.9504
▁сервер	-10.9504
▁низ	-10.9505
▁информационных	-10.9506
▁привязан	-10.9509
▁соотношение	-10.9511
he	-10.9511
▁подсистем	-10.9511
▁исполнил	-10.9512
▁Самы	-10.9514
▁смогла	-10.9514
▁прошла	-10.9514
▁иностранным	-10.9518
▁государственные	-10.9519
▁цитат	-10.952
▁мут	-10.952
72	-10.952
▁отказались	-10.9521
▁позволить	-10.9521
▁обратиться	-10.9521
▁вели	-10.9523
▁приезд	-10.9523
▁осуществления	-10.9525
▁номинации	-10.9525
im	-10.9529
▁процента	-10.953
▁руководству	-10.9531
der	-10.9532
▁выходить	-10.9532
▁обменива	-10.9535
▁привычн	-10.9536
▁Луны	-10.9537
▁процедуры	-10.9538
▁оценка	-10.9538
▁громки	-10.9538
34	-10.9538
▁квалификации	-10.9539
▁заведения	-10.954
▁цивилизации	-10.954
▁Эль	-10.9542
▁IT	-10.9543
▁Май	-10.9544
▁занимаются	-10.9544
▁желт	-10.9544
▁вузов	-10.9545
▁заинтересован	-10.9548
▁удобно	-10.9553
▁менять	-10.9554
▁показ	-10.9557
▁библиотека	-10.9557
▁Собор	-10.9559
▁птицы	-10.9559
два	-10.9561
▁несут	-10.9568
55	-10.9569
▁кан	-10.9571
ывая	-10.9572
▁третьей	-10.9573
▁предъявлен	-10.9573
▁моим	-10.9576
▁Лет	-10.9577
близи	-10.958
▁кодекс	-10.958
▁Пор	-10.958
лиц	-10.9584
-60	-10.9586
▁подтверждает	-10.9589
▁любую	-10.9592
▁Книга	-10.9595
ённый	-10.9596
▁расположены	-10.9597
▁передал	-10.9597
to	-10.9598
▁строя	-10.9598
▁треть	-10.9598
даются	-10.9598
tra	-10.9599
▁объявила	-10.9602
▁лидером	-10.9606
▁религиозн	-10.9615
▁морск	-10.9616
▁границе	-10.9616
Во	-10.9623
▁создали	-10.9623
▁договором	-10.9627
98	-10.9637
▁указал	-10.964
ou	-10.9642
▁дворе	-10.9644
94	-10.9648
▁пел	-10.9648
ut	-10.9651
верт	-10.966
▁круга	-10.9663
▁народно	-10.9663
▁счита	-10.9672
▁коп	-10.9676
▁Джонс	-10.9677
▁Кир	-10.968
▁веков	-10.9682
▁Чер	-10.9683
▁заговорил	-10.9684
▁нации	-10.9686
▁печ	-10.9686
▁таможенным	-10.9689
▁образуют	-10.9689
▁держав	-10.969
▁теме	-10.9692
▁реша	-10.9692
▁даст	-10.9695
▁свобода	-10.9695
ращ	-10.97
ьте	-10.97
▁культ	-10.9703
▁опрос	-10.9707
▁радость	-10.971
учить	-10.971
▁Лента	-10.9711
▁лицу	-10.9713
▁развивать	-10.9714
▁авиа	-10.9714
▁голод	-10.9716
бот	-10.9717
▁продукта	-10.9719
▁прямой	-10.9719
▁каза	-10.972
▁Проект	-10.9722
▁Накануне	-10.9722
▁продолжил	-10.9722
▁телевидения	-10.9722
▁функцию	-10.9722
▁Армении	-10.9722
▁Землю	-10.9722
▁студии	-10.9722
▁Чаплин	-10.9722
▁заслуг	-10.9722
▁количеству	-10.9722
▁экономику	-10.9722
▁принимающая	-10.9722
▁свидетельствует	-10.9722
▁восторг	-10.9722
▁премию	-10.9722
▁Кастро	-10.9722
▁честны	-10.9723
▁рабочего	-10.9723
▁сократить	-10.9723
▁оценил	-10.9723
97	-10.9724
▁круж	-10.9726
▁покров	-10.9727
▁Лидер	-10.9727
▁коллаборативн	-10.9727
▁спектакля	-10.9727
▁распространя	-10.9728
▁провёл	-10.9729
▁разреша	-10.973
▁Особенности	-10.9731
▁советский	-10.9732
▁сознательно	-10.9733
▁прошёл	-10.9733
▁стратегическ	-10.9735
▁построения	-10.9736
▁Естественно	-10.9736
▁Выбор	-10.9736
▁известным	-10.9738
чку	-10.9741
▁платформы	-10.9742
▁признаков	-10.9742
▁спектакль	-10.9744
▁установления	-10.9744
очек	-10.9744
▁День	-10.9745
▁размещение	-10.9746
▁разработчиков	-10.9748
▁сегодняшний	-10.975
▁Кино	-10.9752
▁запущен	-10.9753
льскохозяйственн	-10.9755
▁старые	-10.9755
▁основанием	-10.9758
▁1980-	-10.9758
▁условны	-10.9759
▁замер	-10.9759
▁приход	-10.9759
▁уход	-10.976
▁получится	-10.9761
▁Тро	-10.9761
▁утро	-10.9761
▁быстр	-10.9763
▁останавлива	-10.9764
▁индустрии	-10.9764
▁Свет	-10.9767
▁терп	-10.9768
▁учение	-10.9769
ворот	-10.9772
▁специализирова	-10.9772
▁заказа	-10.9773
ллер	-10.9774
▁нос	-10.9774
вался	-10.9777
▁важный	-10.9783
▁концерта	-10.9784
стоп	-10.9786
жима	-10.9787
чья	-10.979
▁исходны	-10.9791
▁осуществление	-10.9794
▁читатель	-10.9795
тельный	-10.9798
▁ежедневно	-10.98
настоящему	-10.9801
▁министерства	-10.9801
который	-10.9803
вании	-10.9805
▁нечего	-10.9807
КА	-10.9808
▁гуман	-10.9808
▁входа	-10.9811
▁нужд	-10.9811
▁языках	-10.9811
▁цветов	-10.9812
яков	-10.9814
▁отправил	-10.9816
▁найден	-10.9817
▁черно	-10.9825
▁классически	-10.9827
▁3-	-10.9829
▁Новосибирск	-10.9829
▁новому	-10.9831
▁Законом	-10.9831
▁Мел	-10.9831
▁универсальн	-10.9833
▁угрожа	-10.9833
6%	-10.9837
▁Барак	-10.9837
▁отправить	-10.984
92	-10.9841
▁Фин	-10.9842
▁грех	-10.9843
▁восточн	-10.9843
▁лидеры	-10.9845
▁истечени	-10.9849
▁беспоко	-10.985
▁уверены	-10.9853
▁супруга	-10.9857
con	-10.9858
вала	-10.9859
▁образованн	-10.9861
▁востребован	-10.9871
текст	-10.9872
▁французски	-10.9873
функционирования	-10.9875
▁Лук	-10.9876
▁8.	-10.9878
ющаяся	-10.9879
ведены	-10.9881
▁применя	-10.9885
▁способно	-10.9886
▁кристалл	-10.9888
ано	-10.9888
▁уровнем	-10.9893
▁силе	-10.9893
▁цикла	-10.9894
▁мальчика	-10.9895
▁ответственны	-10.9895
▁ведомства	-10.9896
▁поняли	-10.9898
▁окончани	-10.9901
▁перспективе	-10.9903
▁соответствова	-10.9904
▁учебник	-10.9906
делать	-10.9907
▁проблемой	-10.991
▁расположенн	-10.9916
ования	-10.9918
ver	-10.9921
▁схема	-10.9921
▁миг	-10.9925
▁On	-10.9925
▁4)	-10.9926
▁координат	-10.9929
▁обнаружен	-10.9929
▁принес	-10.993
▁бытов	-10.9933
▁достигает	-10.9935
ard	-10.9936
зависим	-10.9938
▁передаёт	-10.9938
▁осуществляет	-10.9939
▁воздухе	-10.9941
▁скажу	-10.9944
▁заканчива	-10.9945
▁Петра	-10.9945
▁Васильев	-10.9948
Барадей	-10.9949
▁Linux	-10.9949
▁Порошенко	-10.9949
▁американцы	-10.9949
▁зданий	-10.9949
▁князь	-10.9949
▁одежды	-10.9949
▁происхождение	-10.9949
▁ребёнка	-10.9949
▁резонанс	-10.9949
▁ссылкой	-10.9949
▁трагедии	-10.9949
▁Рождество	-10.9949
▁коммерчески	-10.9949
▁подготовку	-10.9949
▁судьбы	-10.9949
▁знание	-10.9949
▁Канады	-10.9949
▁адресу	-10.9949
▁Однажды	-10.9949
▁деньгами	-10.9949
▁федерально	-10.9949
▁XIV	-10.9949
▁стремятся	-10.9949
▁требовать	-10.9949
▁ученых	-10.9949
▁Крамник	-10.995
▁дочери	-10.995
▁Европа	-10.995
▁объяснение	-10.995
▁недавне	-10.995
▁король	-10.9951
▁дневник	-10.9951
▁стабильности	-10.9951
▁поражения	-10.9951
▁огромным	-10.9952
!!!	-10.9952
▁приглашающей	-10.9952
▁приглашения	-10.9953
▁преступности	-10.9953
▁воспитания	-10.9954
▁Отечественной	-10.9954
▁Речь	-10.9955
▁бездомных	-10.9956
▁спортсмен	-10.9957
▁Стивен	-10.9957
▁медицинских	-10.9959
ялся	-10.9961
▁утверждение	-10.9961
▁фотограф	-10.9962
▁рассказать	-10.9963
▁командир	-10.9963
▁Дюссельдорф	-10.9965
▁надежды	-10.9968
▁43	-10.997
▁политиков	-10.997
▁культурного	-10.9971
▁расследования	-10.9974
▁лаборатории	-10.9976
▁торговли	-10.9979
▁49	-10.9979
ёж	-10.9982
ьм	-10.9984
▁мета	-10.9985
▁твёрдо	-10.9985
▁автомобилей	-10.9985
▁пошла	-10.9987
▁проходил	-10.9988
▁традиционных	-10.999
64	-10.9992
▁Кат	-10.9992
▁спорту	-10.9992
▁Зачем	-10.9994
▁волосы	-10.9998
▁живых	-10.9998
▁запретил	-11
сельского	-11.0001
▁вторым	-11.0002
▁миллиарда	-11.0002
▁желания	-11.0002
▁нынешни	-11.0003
▁Необходимо	-11.0004
▁звезды	-11.0004
▁муч	-11.0005
▁текущи	-11.0009
▁видят	-11.0009
▁уголовного	-11.0009
▁буквы	-11.001
▁реального	-11.0013
очку	-11.0014
▁сухо	-11.0014
▁правовых	-11.0015
измом	-11.0016
▁экономический	-11.0017
▁перспективы	-11.0018
▁защите	-11.0018
двиг	-11.0021
▁великий	-11.0022
онные	-11.0022
▁интересует	-11.0024
▁технологическ	-11.0026
анов	-11.0027
евых	-11.0029
носить	-11.0029
▁популярных	-11.0029
▁ходят	-11.0032
▁агент	-11.0033
▁определённ	-11.0033
пок	-11.0033
Когда	-11.0035
▁Me	-11.0038
▁привел	-11.004
▁Ираке	-11.0041
ившего	-11.0041
▁оборудование	-11.0045
▁общественн	-11.0045
▁упал	-11.0046
▁имею	-11.0056
▁заст	-11.0057
▁третье	-11.006
▁административны	-11.0064
▁Цен	-11.0067
29	-11.0068
очных	-11.0069
около	-11.007
▁звуки	-11.0072
▁округ	-11.0072
▁миссии	-11.0079
▁XXI	-11.008
стройка	-11.0082
▁статуса	-11.0082
▁дата	-11.0084
▁Народ	-11.0088
менить	-11.0088
ающие	-11.0089
▁покрыт	-11.0089
▁частны	-11.0094
▁находи	-11.0095
шем	-11.0098
▁прессе	-11.0103
▁причину	-11.0104
▁финансового	-11.0105
▁давал	-11.0114
▁жилым	-11.0115
АР	-11.0116
▁высокого	-11.0117
жён	-11.0117
▁жанр	-11.0118
▁художественн	-11.0118
пущен	-11.0119
очный	-11.0122
▁музыкант	-11.0123
явление	-11.0125
▁блогер	-11.0131
▁иного	-11.0134
▁запад	-11.0134
▁Вест	-11.0136
▁Кажд	-11.0138
▁примере	-11.0139
54	-11.0139
▁активист	-11.0142
нулись	-11.0142
▁генеральн	-11.0143
▁диаметр	-11.0145
▁рубеж	-11.0149
▁истреб	-11.0149
▁арестован	-11.0152
▁используем	-11.016
▁сегодняшне	-11.0161
▁остановить	-11.0161
▁определяют	-11.0161
▁сексуальны	-11.0165
сообществ	-11.0167
реч	-11.0168
▁Свят	-11.0169
▁облада	-11.0171
▁Кре	-11.0172
▁представля	-11.0172
▁привык	-11.0173
вёл	-11.0174
▁увеличил	-11.0179
▁приняла	-11.0179
69	-11.0179
▁ощуща	-11.0182
▁LATEX	-11.0182
▁Вальдемар	-11.0182
▁Квадратович	-11.0182
▁Предполагается	-11.0182
▁американцев	-11.0182
▁вовремя	-11.0182
▁жёстко	-11.0182
▁значений	-11.0182
▁каждое	-11.0182
▁предприятие	-11.0182
▁тенденция	-11.0182
▁действуют	-11.0182
▁достижение	-11.0182
▁коридор	-11.0182
▁писателей	-11.0182
▁писем	-11.0182
▁реакции	-11.0182
▁Вишес	-11.0182
▁тремя	-11.0182
▁мною	-11.0182
▁вошла	-11.0182
▁орудие	-11.0182
▁предвыборн	-11.0182
▁туалет	-11.0182
▁первичн	-11.0182
ываем	-11.0182
▁присутствует	-11.0182
▁почты	-11.0182
▁мелких	-11.0182
▁Исход	-11.0182
▁Причина	-11.0182
▁объяснения	-11.0182
▁новостей	-11.0183
▁соотношения	-11.0183
дут	-11.0183
▁десятков	-11.0184
▁половина	-11.0184
▁пищи	-11.0184
▁заявлении	-11.0184
▁просит	-11.0184
▁настроения	-11.0185
▁листья	-11.0185
▁очаг	-11.0185
▁сократил	-11.0185
▁лунн	-11.0185
▁копии	-11.0186
▁сообщества	-11.0186
ОВ	-11.0187
▁исследовательск	-11.0187
▁Дэн	-11.0189
▁советские	-11.019
▁собор	-11.019
▁допуск	-11.0191
▁возникающи	-11.0193
▁уведомление	-11.0194
▁Ca	-11.0194
▁Мари	-11.0196
▁применяется	-11.0196
▁прошел	-11.0196
▁электронн	-11.0198
▁жителям	-11.0199
▁доказать	-11.0199
▁допущен	-11.0199
▁православных	-11.0199
▁подумать	-11.02
▁признается	-11.02
▁допускается	-11.02
▁предельно	-11.0201
▁телевидение	-11.0201
▁увеличения	-11.0202
▁нынешне	-11.0203
вшимися	-11.0203
▁нервно	-11.0204
▁музыке	-11.0205
▁считалось	-11.0205
▁высотой	-11.0207
пускать	-11.0207
▁магазина	-11.0207
▁Учёные	-11.0208
лета	-11.0208
▁шли	-11.0211
▁процедур	-11.0212
▁выделяют	-11.0213
айн	-11.0214
▁различия	-11.0215
▁сложные	-11.0217
em	-11.0217
▁старый	-11.0219
▁мел	-11.022
▁тест	-11.0221
▁борту	-11.0222
▁порту	-11.0226
▁списка	-11.0227
▁звучит	-11.0228
▁билеты	-11.0229
▁затраты	-11.0229
▁Кост	-11.0229
▁сложных	-11.0232
▁Павла	-11.0235
▁детских	-11.0236
▁автомобиль	-11.0241
иком	-11.0241
▁письменны	-11.0242
MT	-11.0243
▁Марии	-11.0244
▁поставки	-11.0246
▁значительны	-11.0247
▁скульптур	-11.0249
▁47	-11.025
▁крем	-11.025
▁You	-11.025
Ку	-11.0252
ящий	-11.0253
▁Одним	-11.0254
▁баз	-11.0255
▁особого	-11.0255
▁Пас	-11.0256
носил	-11.0258
▁мет	-11.0259
▁линия	-11.0263
▁лат	-11.0264
▁несет	-11.0266
▁убийства	-11.0266
▁испытыва	-11.0269
36	-11.027
▁директоров	-11.0271
▁материально	-11.0271
ладить	-11.0274
▁персонаж	-11.0275
▁домен	-11.0276
▁строг	-11.0276
▁препода	-11.0276
казать	-11.0282
va	-11.0282
▁крупнейше	-11.0283
▁Тай	-11.0284
▁существо	-11.0288
▁пошел	-11.029
▁предпочита	-11.029
▁подозрева	-11.0292
▁едет	-11.0294
▁лак	-11.0294
▁ролик	-11.0297
▁важные	-11.0298
▁успешн	-11.0299
▁произошл	-11.0305
▁развитием	-11.0306
онт	-11.0308
▁популярны	-11.0308
▁Pa	-11.0312
▁манифест	-11.0313
▁привлекательн	-11.0313
▁эффекта	-11.0314
совершеннолетних	-11.0315
льц	-11.0321
▁направля	-11.0331
писывается	-11.0333
▁сокращение	-11.0333
▁зарплат	-11.0334
▁республик	-11.0339
▁страшн	-11.0341
маш	-11.0342
▁пожал	-11.0343
▁аналитик	-11.0344
▁участвовал	-11.0344
елли	-11.0347
▁президенту	-11.0347
▁американским	-11.035
резан	-11.0354
▁скот	-11.0355
▁пожил	-11.0355
▁x	-11.0357
▁реальной	-11.0361
ьной	-11.0364
▁ядерн	-11.0365
▁способна	-11.037
культурн	-11.0374
▁выделен	-11.0374
▁баланс	-11.0378
▁судей	-11.0381
▁героин	-11.0382
▁плен	-11.0389
тип	-11.039
▁голова	-11.0392
рё	-11.0392
▁разряд	-11.0394
▁лед	-11.0394
разному	-11.0395
▁последующи	-11.0395
очной	-11.0396
▁читателя	-11.0398
▁соблюдени	-11.0401
▁Др	-11.0402
▁передел	-11.0402
▁теря	-11.0407
▁правительственн	-11.0411
очке	-11.0413
Петербурге	-11.0414
▁ряду	-11.0415
▁наград	-11.0415
верх	-11.0416
▁Валентин	-11.042
▁Лебедев	-11.042
▁Отсюда	-11.042
▁Церковь	-11.042
▁ассоциации	-11.042
▁инвестиций	-11.042
▁конкуренции	-11.042
▁мёртв	-11.042
▁непрерывно	-11.042
▁одобрил	-11.042
▁пафос	-11.042
▁предположить	-11.042
▁тюрьме	-11.042
▁энергия	-11.042
▁неожиданны	-11.042
▁охране	-11.042
▁сердца	-11.042
▁заведомо	-11.042
▁партию	-11.042
▁полгода	-11.042
▁Федерацию	-11.042
▁участвует	-11.042
▁никуда	-11.042
▁Значит	-11.042
▁реестр	-11.042
▁Почти	-11.042
▁Джеймс	-11.042
▁расчёт	-11.042
▁многократно	-11.042
ступать	-11.042
▁погибших	-11.0421
▁скончался	-11.0421
▁1976	-11.0421
▁пыли	-11.0421
▁водителя	-11.0422
▁Корея	-11.0422
▁Томас	-11.0422
▁постановке	-11.0422
▁КНР	-11.0422
▁Название	-11.0422
▁существующих	-11.0423
▁утверждать	-11.0423
▁гимн	-11.0423
▁осени	-11.0423
▁документации	-11.0424
▁переводов	-11.0424
▁петь	-11.0424
▁выражения	-11.0424
▁словарь	-11.0425
▁радикальны	-11.0426
сетевых	-11.0426
▁прямом	-11.0426
▁Игорь	-11.0427
▁рейс	-11.0427
живать	-11.0427
▁наркоман	-11.0428
▁дворца	-11.0428
▁судья	-11.0429
▁смотрят	-11.0431
▁средство	-11.0432
▁отдела	-11.0432
▁поддержать	-11.0434
ьная	-11.0437
▁французского	-11.0437
▁профессиональн	-11.0437
▁устроил	-11.044
▁(2	-11.0441
▁происходило	-11.0441
▁внести	-11.0443
▁клад	-11.0443
▁супругов	-11.0443
▁единого	-11.0444
▁Геро	-11.0448
▁удовлетворение	-11.0448
▁покинуть	-11.0448
▁обществу	-11.0449
чего	-11.045
▁держа	-11.045
▁рядов	-11.0451
▁городских	-11.0455
▁цифры	-11.0455
▁пригород	-11.0458
▁занимался	-11.0459
▁индивид	-11.0459
▁приложений	-11.0461
▁художников	-11.0463
▁отделение	-11.0464
▁l	-11.0464
▁иск	-11.0465
жка	-11.0467
▁морской	-11.0468
▁бин	-11.0468
ge	-11.047
▁реч	-11.0472
▁Сен	-11.0472
▁членам	-11.0473
рии	-11.0474
▁законе	-11.0475
▁реальных	-11.0475
1%	-11.0475
ушки	-11.0475
▁спектр	-11.0477
▁иконы	-11.0478
▁ВИЧ	-11.0479
щика	-11.048
▁творческой	-11.0483
карт	-11.0485
▁Пят	-11.0486
▁реп	-11.0487
▁министров	-11.0487
▁способами	-11.0489
▁блока	-11.0493
▁минувш	-11.0493
▁процессуальны	-11.0493
▁обещал	-11.0493
▁аренд	-11.0496
▁осуществляющи	-11.0497
▁спортивны	-11.0498
▁Эр	-11.05
ающий	-11.0501
емая	-11.0504
▁Американск	-11.0507
▁границей	-11.0508
▁оператора	-11.0508
▁боев	-11.0511
▁чиновник	-11.0512
▁грани	-11.0513
ion	-11.0515
Голос	-11.0516
▁твердо	-11.0516
▁периодически	-11.0519
оров	-11.052
▁вдвое	-11.0521
▁ваши	-11.0521
▁VI	-11.0522
do	-11.0522
Един	-11.0522
▁Риме	-11.0523
▁практика	-11.0524
▁колони	-11.0525
секретарь	-11.0526
далее	-11.0527
лый	-11.0528
▁школах	-11.0532
▁используемы	-11.0533
▁гнев	-11.0536
▁заняты	-11.0541
▁Тихон	-11.0542
▁чрезвычайны	-11.0542
▁рожда	-11.0544
▁Луи	-11.0544
▁лесу	-11.0547
▁призыва	-11.0549
▁сверху	-11.0551
Все	-11.0551
▁признали	-11.0552
▁лоб	-11.0552
▁считая	-11.0553
▁живой	-11.0555
стоятель	-11.056
даст	-11.056
ist	-11.0562
▁виноват	-11.0566
▁образца	-11.0567
энд	-11.0567
▁Дом	-11.0572
▁Конституционном	-11.0573
▁невест	-11.0574
▁лежат	-11.0575
▁базовы	-11.0575
▁Иваныча	-11.0578
грам	-11.0579
▁Виктора	-11.0581
троп	-11.0582
▁альтернатив	-11.0586
▁Суде	-11.0586
▁понят	-11.0589
▁нашёл	-11.0589
джаз	-11.0591
▁Маг	-11.0598
▁41	-11.0598
▁геометрически	-11.0599
мерно	-11.06
арта	-11.0601
▁процессор	-11.0604
▁Джона	-11.0609
▁предложением	-11.0613
▁e	-11.0613
▁оригинал	-11.0614
▁золот	-11.0615
▁женщину	-11.0615
▁издательства	-11.0622
ресс	-11.0623
▁Бра	-11.0624
▁джаз	-11.0629
▁прессы	-11.0631
▁сохрани	-11.0633
▁исполня	-11.0633
▁Мат	-11.0642
▁собственник	-11.0642
▁меняется	-11.0643
гну	-11.0644
▁био	-11.0644
▁отпуск	-11.0644
▁обид	-11.0648
▁называет	-11.0648
▁указан	-11.0649
▁отличи	-11.0653
▁спин	-11.0654
▁предоставля	-11.0655
▁вслед	-11.066
▁ухудш	-11.0661
▁отдельным	-11.0661
▁Стив	-11.0661
▁гипер	-11.0662
▁существ	-11.0663
ложили	-11.0663
▁Комитет	-11.0664
▁ЛФШ	-11.0664
▁Примечательно	-11.0664
▁Пхеньян	-11.0664
▁Ричард	-11.0664
▁небольшим	-11.0664
▁одежду	-11.0664
▁популяции	-11.0664
▁социальную	-11.0664
▁энергию	-11.0664
▁пианист	-11.0664
▁Вселенной	-11.0664
▁детстве	-11.0664
▁обычных	-11.0664
▁Победы	-11.0664
▁Представитель	-11.0664
▁зритель	-11.0664
▁маленькие	-11.0664
▁жильё	-11.0664
▁начнут	-11.0664
▁опеки	-11.0664
▁белый	-11.0664
▁нарушает	-11.0664
▁принадлежности	-11.0664
▁Действия	-11.0664
▁нижне	-11.0665
▁1938	-11.0665
▁1975	-11.0666
▁Московского	-11.0667
▁договорились	-11.0667
▁1940	-11.0667
▁рассмотрении	-11.0667
42	-11.0668
▁завершени	-11.0668
▁Николаев	-11.0668
▁Остальные	-11.0668
▁наход	-11.0668
▁рабочие	-11.0668
▁энергетически	-11.0668
▁остальное	-11.0669
▁наркотиков	-11.067
▁обычной	-11.067
▁устанавливаются	-11.0671
▁разработка	-11.0671
▁800	-11.0672
▁оптическ	-11.0672
▁критика	-11.0672
▁имидж	-11.0674
▁Парти	-11.0674
▁Куда	-11.0676
▁композиции	-11.0676
▁сотрудничество	-11.0677
▁удовлетвор	-11.0678
▁производителей	-11.0679
▁раскрыт	-11.0679
▁Право	-11.0679
▁углу	-11.0679
▁справедливо	-11.0681
▁задержанных	-11.0683
▁учиться	-11.0683
▁устанавливается	-11.0683
▁живопись	-11.0684
▁рассматривается	-11.0684
▁больных	-11.0685
ающей	-11.0685
▁правилами	-11.0685
▁закрыть	-11.0686
▁Дома	-11.0687
▁влияет	-11.0688
▁политическую	-11.0688
▁просил	-11.0691
▁поставок	-11.0691
▁здорово	-11.0693
▁предусмотрено	-11.0693
▁Ел	-11.0695
▁Зам	-11.0696
▁гостей	-11.0697
▁спи	-11.0697
▁Йо	-11.0699
▁глупо	-11.0699
▁Время	-11.0699
ленных	-11.07
▁отчасти	-11.0701
зар	-11.0702
▁забыть	-11.0703
84	-11.0704
▁умение	-11.0707
нди	-11.0708
▁выгодно	-11.0709
▁испан	-11.071
рег	-11.0711
▁помещ	-11.0712
▁положительн	-11.0712
ющимися	-11.0713
плыв	-11.0714
▁Увы	-11.0714
▁чиновника	-11.0715
распространяется	-11.0716
▁финансовые	-11.0716
▁молодого	-11.0718
▁убить	-11.0719
▁полезн	-11.072
▁культурой	-11.072
▁каждым	-11.0723
▁искусств	-11.0723
▁Ок	-11.0724
▁заработать	-11.0724
▁финальн	-11.0726
▁очевидны	-11.0726
нар	-11.0729
▁жанра	-11.0732
▁старт	-11.0732
▁единственно	-11.0736
▁акты	-11.0737
▁сервисов	-11.0738
▁горы	-11.0739
▁супруг	-11.074
▁располага	-11.074
▁задачей	-11.0741
▁скандальн	-11.0743
▁единой	-11.0743
▁оперы	-11.0746
▁главном	-11.0746
▁вернул	-11.0747
▁воспринимает	-11.0754
▁инсулин	-11.0755
▁принципу	-11.0756
▁налоговых	-11.0757
▁ориентирован	-11.0757
▁вело	-11.0758
▁создавал	-11.0759
есть	-11.076
▁русск	-11.076
▁Наши	-11.076
▁похорон	-11.0761
▁аэропорта	-11.0762
верен	-11.0762
▁лав	-11.0763
тех	-11.0764
▁Примерн	-11.0767
премьер	-11.0767
▁сменил	-11.0771
▁экономически	-11.0774
закон	-11.0776
▁старого	-11.0779
▁дорогах	-11.0782
▁физическим	-11.0785
▁официальной	-11.0786
▁небе	-11.0787
бирают	-11.0787
▁поддержани	-11.0789
▁нормальной	-11.0794
▁следствием	-11.0794
▁52	-11.0794
▁феномен	-11.0794
▁Русск	-11.0797
цкого	-11.0798
орган	-11.0805
▁полит	-11.0806
▁четвер	-11.0808
лены	-11.0808
▁вокзал	-11.0809
видимому	-11.0813
▁выражен	-11.0818
хождение	-11.0819
▁субъективн	-11.0819
Ла	-11.0822
▁метр	-11.0823
▁Мед	-11.0824
▁штрафов	-11.0826
▁Правительством	-11.0827
▁согласовани	-11.0829
ременные	-11.0835
сети	-11.0837
▁математик	-11.0837
▁задумыва	-11.0839
▁гран	-11.084
▁журнале	-11.0842
▁Древне	-11.0843
▁Этим	-11.0843
▁ответов	-11.0849
▁постоянн	-11.0851
▁случая	-11.0851
нику	-11.0852
▁окон	-11.0855
mi	-11.0862
▁сахар	-11.0866
▁церковны	-11.0867
-20	-11.0869
▁выкуп	-11.0869
▁Уильям	-11.0869
▁дорого	-11.0869
▁тени	-11.087
▁Соединенны	-11.0871
▁обрат	-11.0872
▁управ	-11.0872
▁новыми	-11.0872
▁предлагаем	-11.0874
АН	-11.0878
ческие	-11.0879
▁разруш	-11.088
▁слеп	-11.0881
au	-11.0881
сия	-11.0881
▁файлов	-11.0885
▁грозит	-11.0887
▁Билл	-11.0888
▁импульс	-11.089
▁арбитражн	-11.0894
▁создают	-11.0897
▁упомянут	-11.0898
шке	-11.0901
Петербурга	-11.0902
▁обнаружили	-11.0904
▁Какой	-11.0908
▁Ответ	-11.0908
▁локальны	-11.091
▁дики	-11.091
▁жизненно	-11.0911
▁смеш	-11.0911
▁отмечал	-11.0913
▁государственном	-11.0913
▁1944	-11.0914
▁Африке	-11.0914
▁Клинтон	-11.0914
▁гоминид	-11.0914
▁диапазон	-11.0914
▁династии	-11.0914
▁единства	-11.0914
▁знаешь	-11.0914
▁коалиции	-11.0914
▁маленьких	-11.0914
▁матерью	-11.0914
▁небольшие	-11.0914
▁поджелудочн	-11.0914
▁сегмент	-11.0914
▁стёкол	-11.0914
▁Видимо	-11.0914
▁Определение	-11.0914
▁пистолет	-11.0914
▁повседневн	-11.0914
▁прихожан	-11.0914
▁сидеть	-11.0914
▁судьбу	-11.0914
▁теорию	-11.0914
▁монастырь	-11.0914
▁Геннади	-11.0914
Роснефть	-11.0914
▁ВТБ	-11.0914
▁Канаде	-11.0914
▁зимой	-11.0914
▁Анализ	-11.0914
▁организацией	-11.0914
▁жрец	-11.0914
▁коммуникации	-11.0914
▁одноимённ	-11.0914
▁лучшим	-11.0914
▁Дарвин	-11.0914
▁1941	-11.0915
▁топливо	-11.0915
▁научные	-11.0915
▁закреплен	-11.0915
▁звание	-11.0915
▁начинать	-11.0915
▁повысить	-11.0915
▁аниме	-11.0916
▁Джексон	-11.0916
▁владельцев	-11.0916
▁обучение	-11.0916
▁расширения	-11.0918
▁произнес	-11.0918
▁мощности	-11.0918
▁отлично	-11.0918
▁жилья	-11.0919
▁относя	-11.0919
▁внутренней	-11.0919
▁присутствовал	-11.092
▁обозначение	-11.0921
▁остаться	-11.0922
▁разделения	-11.0923
▁требованиями	-11.0923
▁народу	-11.0925
▁существенн	-11.0925
▁Федеральным	-11.0926
▁выходят	-11.0927
▁Иоанн	-11.0927
▁денежные	-11.0928
▁железы	-11.0929
поп	-11.0929
▁допустить	-11.0929
▁посыл	-11.093
▁Теле	-11.093
▁жажд	-11.093
▁варианте	-11.0931
▁выставка	-11.0933
▁расы	-11.0934
▁режиссёра	-11.0937
▁улицу	-11.0937
▁факультета	-11.0938
падает	-11.0938
▁свеже	-11.0938
▁Стра	-11.0939
▁рта	-11.094
▁общение	-11.094
цин	-11.0942
▁бунт	-11.0942
▁библиотек	-11.0945
▁третьим	-11.0945
▁парламентски	-11.0945
▁электрон	-11.0946
▁туристов	-11.0947
▁дисциплины	-11.095
▁уверенно	-11.0951
▁соответствую	-11.0952
▁Результаты	-11.0953
▁референдум	-11.0953
никами	-11.0953
▁политического	-11.0954
▁живущи	-11.0954
▁богов	-11.0959
летие	-11.0959
▁Урал	-11.096
▁поражение	-11.0961
▁Молод	-11.0964
▁получали	-11.0968
▁бумаги	-11.097
68	-11.097
льно	-11.0971
▁знакомых	-11.0971
▁старых	-11.0973
▁мою	-11.0974
ческих	-11.0975
▁подвиг	-11.0975
▁фаз	-11.0976
▁Дина	-11.0977
▁Луис	-11.0977
▁художественного	-11.0977
▁предлагается	-11.0977
«	-11.0978
▁эквивалент	-11.0983
дру	-11.0984
рать	-11.0987
▁районы	-11.0989
▁направленны	-11.0991
чики	-11.0995
▁методами	-11.0995
▁уникальн	-11.0999
▁Берлине	-11.1
▁считаться	-11.1
▁квартал	-11.1002
жин	-11.1002
▁присоедини	-11.1003
▁включают	-11.1004
▁мера	-11.1011
ква	-11.1011
▁планах	-11.1013
▁Класс	-11.1015
▁50-	-11.1018
сторож	-11.1019
▁демократическ	-11.102
▁фрагмент	-11.1023
человек	-11.1024
▁муниципально	-11.1024
▁кругом	-11.1024
si	-11.1025
▁Азербайджана	-11.1027
▁привели	-11.1029
▁элемент	-11.103
▁клубов	-11.1033
ируя	-11.1034
рай	-11.1036
▁миром	-11.1037
лять	-11.1038
▁европейские	-11.104
▁Кап	-11.1041
▁ключев	-11.1041
ub	-11.1046
Эн	-11.1047
▁сайты	-11.1048
48	-11.1048
▁Константин	-11.105
▁ритуал	-11.1051
▁Британск	-11.1053
▁общественные	-11.1055
▁пух	-11.1058
▁Фил	-11.106
▁введен	-11.1062
вский	-11.1064
▁письме	-11.1065
▁играли	-11.1065
▁смыслу	-11.1067
▁освоени	-11.1067
▁золотой	-11.1068
▁эп	-11.1068
▁пилот	-11.1072
ичный	-11.1074
▁голосом	-11.1074
▁позволил	-11.1075
▁древне	-11.1079
▁Никит	-11.108
▁ростом	-11.1083
▁10-	-11.1085
sp	-11.1085
▁столичны	-11.109
▁Lo	-11.1091
▁Музыка	-11.1093
▁такому	-11.1093
▁делали	-11.1093
▁мудр	-11.1094
▁первому	-11.1098
▁исчез	-11.1105
сайт	-11.1105
▁широком	-11.1106
▁Петербург	-11.1107
ТО	-11.111
▁Были	-11.1117
сона	-11.1117
▁изготовлен	-11.112
▁нынешнем	-11.1123
▁официальным	-11.1124
▁Соединённы	-11.1125
▁большом	-11.1127
▁критическ	-11.1128
▁таковы	-11.1129
▁твёрд	-11.113
▁условие	-11.113
▁Важно	-11.1131
▁общественны	-11.1132
▁двойн	-11.1133
▁приводят	-11.1133
дите	-11.1136
▁современным	-11.1137
▁законопроекта	-11.1137
go	-11.1137
▁математически	-11.1139
▁нулев	-11.1145
▁подготовлен	-11.1147
▁описывает	-11.1147
▁увеличива	-11.1147
▁оркестр	-11.1147
▁свеж	-11.1148
зелён	-11.1149
▁эстет	-11.1153
Свобод	-11.1157
▁гу	-11.116
▁моменты	-11.1163
▁марки	-11.1168
▁57	-11.117
▁кампании	-11.117
▁князя	-11.117
▁комментариев	-11.117
▁опекун	-11.117
▁санкций	-11.117
▁тридцати	-11.117
▁электроэнергии	-11.117
▁днём	-11.117
▁хватило	-11.117
▁вражды	-11.117
▁судопроизводств	-11.117
▁выглядел	-11.117
▁исследователи	-11.117
▁регулирования	-11.117
▁единственная	-11.117
▁реализовать	-11.117
▁дождь	-11.117
▁заседание	-11.1171
▁колёс	-11.1171
▁попечительства	-11.1171
▁производству	-11.1171
▁столетия	-11.1171
▁обойтись	-11.1171
▁численности	-11.1171
▁автономно	-11.1172
▁рассказывать	-11.1172
▁твои	-11.1172
▁хватало	-11.1172
▁сознании	-11.1172
▁усилени	-11.1173
▁изменилась	-11.1173
▁выйдет	-11.1173
▁фе	-11.1174
▁публику	-11.1174
▁ожидать	-11.1175
ster	-11.1175
▁видишь	-11.1175
▁переворот	-11.1175
▁английской	-11.1176
▁выполнить	-11.1177
ишься	-11.1178
▁бас	-11.1178
▁ввод	-11.1179
▁давления	-11.118
▁незнаком	-11.118
▁Афганистан	-11.1186
▁выбирать	-11.1186
▁бланк	-11.1186
▁хор	-11.1186
▁известность	-11.1187
▁Система	-11.1188
▁солнечн	-11.1188
▁агрегат	-11.1188
▁неприятны	-11.1189
▁избирательны	-11.1189
▁электронные	-11.1189
39	-11.119
▁численность	-11.1192
▁стойк	-11.1192
▁военнослужащих	-11.1192
▁функциональны	-11.1193
▁заняться	-11.1194
▁расширение	-11.1194
▁Кубка	-11.1194
▁кв	-11.1196
▁улучшения	-11.1197
▁противоречий	-11.1197
▁Мил	-11.1198
▁рассматриваться	-11.1202
▁социалистическ	-11.1203
льный	-11.1203
тем	-11.1204
▁поговорить	-11.1204
▁проходить	-11.1205
▁материи	-11.1206
▁открыва	-11.1206
▁опустил	-11.1206
▁поисковик	-11.1208
▁противника	-11.1208
▁величины	-11.1209
▁ушёл	-11.1209
▁разрабатываем	-11.121
▁восстановление	-11.1211
вает	-11.1211
▁домашних	-11.1213
▁туман	-11.1214
▁департамента	-11.1215
▁некогда	-11.1216
▁записал	-11.1217
▁занимал	-11.1221
▁зарубежных	-11.1223
один	-11.1226
▁объединя	-11.1226
▁получал	-11.1226
▁обладающи	-11.1227
▁властями	-11.1229
▁длинно	-11.1231
▁следить	-11.1232
▁уничтожен	-11.1233
▁аренду	-11.1237
▁император	-11.1243
чий	-11.1243
ающего	-11.1245
иса	-11.1246
▁трассе	-11.1246
▁науке	-11.1246
▁вино	-11.1248
НК	-11.1248
▁режиссера	-11.1249
▁реформ	-11.1251
▁планировал	-11.1253
▁грузински	-11.1253
▁пересмотр	-11.1253
дача	-11.1257
▁ставки	-11.1257
▁душ	-11.1259
СТ	-11.1262
▁размером	-11.1262
▁началу	-11.1264
▁исторических	-11.1264
итесь	-11.1267
▁разделить	-11.1268
быть	-11.1269
▁Остров	-11.127
▁Ей	-11.1271
▁порта	-11.1272
▁важны	-11.1279
▁обеспечивающи	-11.1281
▁весом	-11.1282
▁традиция	-11.1282
▁методом	-11.1288
моему	-11.1289
▁внешним	-11.129
дробнее	-11.129
▁предстояще	-11.1292
чан	-11.1292
▁образу	-11.1292
▁эксперта	-11.1294
▁Син	-11.1294
▁структуре	-11.1296
▁праздн	-11.1299
▁велика	-11.1301
▁65	-11.1301
третьих	-11.1301
▁государству	-11.1302
▁стремит	-11.1302
▁стоя	-11.1302
no	-11.1309
▁сочетани	-11.131
▁приступ	-11.1312
ваю	-11.1313
▁Пакистан	-11.1314
▁Вулф	-11.1315
▁Папа	-11.1316
▁вспоминал	-11.1317
▁Ху	-11.1318
▁инструмента	-11.1322
▁двум	-11.133
▁носят	-11.1331
ns	-11.1331
▁пусто	-11.1333
▁реже	-11.1334
ейший	-11.1334
▁Азербайджан	-11.1337
▁принципиальн	-11.134
▁позволял	-11.1342
▁Нас	-11.1344
▁секретарь	-11.1346
▁60-	-11.1349
дже	-11.135
▁гармон	-11.1354
▁скажет	-11.1357
▁обеспечива	-11.1366
▁нашему	-11.1366
▁свободное	-11.1367
групп	-11.1368
▁авторско	-11.1369
-6	-11.1371
▁села	-11.1373
▁законодательны	-11.1374
▁женск	-11.1377
▁зон	-11.1384
▁островах	-11.1387
▁стан	-11.1388
▁представлена	-11.1393
▁пес	-11.1398
▁устроен	-11.1403
▁Хор	-11.1405
▁преимущества	-11.1407
▁лучшего	-11.1409
▁9.	-11.141
▁дальнейши	-11.1412
ставил	-11.1413
▁рассмотрен	-11.1414
▁дурак	-11.1418
ровать	-11.142
▁клинически	-11.1422
▁совершают	-11.1425
▁Марс	-11.1426
▁встретил	-11.1427
▁выступа	-11.1431
▁См	-11.1433
Росбалт	-11.1433
▁Африки	-11.1433
▁Игнатия	-11.1433
▁оппонент	-11.1433
▁участке	-11.1433
▁хозяев	-11.1433
Интерфакс	-11.1433
▁Финляндии	-11.1433
▁концепция	-11.1433
▁солнца	-11.1433
▁сообщений	-11.1433
▁концентраци	-11.1433
▁Ватикан	-11.1433
▁зря	-11.1433
▁растения	-11.1433
▁Православн	-11.1433
▁Лойко	-11.1433
▁гендиректор	-11.1433
▁узлов	-11.1433
▁заявляют	-11.1434
▁растет	-11.1434
▁регистрация	-11.1434
▁восстановить	-11.1434
Вконтакте	-11.1434
▁шкаф	-11.1434
▁стратегии	-11.1435
▁разработал	-11.1435
▁избавиться	-11.1435
▁мистер	-11.1435
▁1945	-11.1435
▁печать	-11.1436
▁своя	-11.1436
▁Общая	-11.1436
▁отозвал	-11.1437
▁утверждения	-11.1438
▁заканчивается	-11.1438
▁вызывают	-11.1438
▁находилась	-11.1438
▁Стары	-11.1438
▁рабочей	-11.1439
▁советское	-11.1439
▁механически	-11.144
▁Свои	-11.1441
▁постели	-11.1441
▁посещения	-11.1442
▁десят	-11.1444
▁материальных	-11.1444
▁карта	-11.1444
▁приблизи	-11.1444
▁Москвой	-11.1445
▁употребления	-11.1446
▁ходит	-11.1446
▁Второе	-11.1448
▁Фу	-11.1449
▁смешно	-11.145
▁250	-11.145
▁коренн	-11.145
▁огромный	-11.145
▁характеризуется	-11.145
▁радикально	-11.1451
▁очереди	-11.1451
▁предоставление	-11.1453
▁обход	-11.1455
Ведомости	-11.1457
▁Слав	-11.1457
▁заплатить	-11.1457
▁связыва	-11.1459
▁угрозой	-11.146
▁подал	-11.1461
▁Начина	-11.1462
▁соответствующ	-11.1463
▁1960-	-11.1464
▁прошу	-11.1465
▁квартиру	-11.1467
▁форумов	-11.147
▁последняя	-11.147
▁поверхность	-11.1471
▁издательство	-11.1471
пед	-11.1472
▁работали	-11.1473
▁завершения	-11.1473
▁упор	-11.1474
▁лечения	-11.1476
▁положил	-11.1476
▁ремонта	-11.1477
▁пережива	-11.1479
▁занять	-11.148
ерба	-11.1482
▁игров	-11.1482
▁уникальны	-11.1483
долю	-11.1484
▁хорошая	-11.1484
▁подходит	-11.1486
джа	-11.1486
▁действовал	-11.1488
▁воспоминания	-11.1488
▁определены	-11.1489
▁хорошим	-11.1489
▁ввоз	-11.149
▁Пр	-11.149
▁r	-11.1492
▁снизить	-11.1494
▁финансовый	-11.1495
ck	-11.1495
▁Международны	-11.1497
▁Владимиром	-11.1499
▁верить	-11.1503
▁славы	-11.1505
▁интереса	-11.1506
▁сине	-11.1509
▁приостановлен	-11.1509
▁участниками	-11.1513
▁позволили	-11.1514
нера	-11.1517
▁Авторы	-11.1517
▁объявлено	-11.1518
▁данными	-11.1519
▁Основн	-11.152
▁42	-11.1525
оставался	-11.1526
тоимость	-11.1528
▁полосы	-11.1528
▁читаю	-11.1529
шему	-11.1531
▁спуска	-11.1537
▁отверг	-11.1539
▁Mi	-11.1539
несён	-11.1543
▁общественным	-11.1546
▁театральн	-11.1547
больших	-11.1548
▁потока	-11.1557
США	-11.1557
▁финале	-11.1558
▁развит	-11.1558
▁признавал	-11.1559
▁груб	-11.1561
▁свойствами	-11.1561
ироваться	-11.1563
руп	-11.1563
бог	-11.1566
▁ед	-11.1568
▁носил	-11.1572
▁единственное	-11.1572
дзе	-11.1572
▁игрок	-11.1572
▁жесток	-11.1573
▁инцидент	-11.1574
начал	-11.1574
▁равны	-11.1577
▁основатель	-11.1578
▁Март	-11.1581
▁весной	-11.1583
▁тексте	-11.1586
думал	-11.1587
▁отмет	-11.1587
▁господин	-11.1589
ставляя	-11.1591
▁смыслов	-11.1591
▁пакета	-11.1592
▁добра	-11.1593
▁t	-11.1597
личный	-11.16
пать	-11.1601
▁докладе	-11.1601
59	-11.1602
67	-11.1606
▁13-	-11.1606
▁Лен	-11.1607
▁количеством	-11.1608
▁велики	-11.1608
чок	-11.1611
▁классическо	-11.1611
▁Wi	-11.1615
▁80-	-11.1617
▁слух	-11.1618
▁физические	-11.1618
лама	-11.162
▁набора	-11.1621
▁сериал	-11.1621
▁вывоз	-11.1626
▁вашей	-11.1628
▁победил	-11.1629
▁устойчив	-11.1629
перед	-11.163
▁белорусск	-11.1631
▁арабски	-11.1632
эффективн	-11.1633
▁спорт	-11.1635
нятия	-11.1636
▁укрепление	-11.1638
ированы	-11.1639
▁тяжелы	-11.164
ack	-11.164
иста	-11.1642
▁клубы	-11.1645
▁значительное	-11.1645
▁этаж	-11.1646
длин	-11.1648
▁посты	-11.165
▁переведен	-11.165
▁дороже	-11.1652
▁образы	-11.1652
▁известной	-11.1656
▁больно	-11.1661
▁кинематограф	-11.1661
▁Гар	-11.1661
▁Результат	-11.1662
▁проблемами	-11.1663
левые	-11.1663
▁госпож	-11.1665
▁оспарива	-11.1665
ive	-11.1668
▁тон	-11.1669
tic	-11.167
▁стояла	-11.1671
бегал	-11.1671
▁сериала	-11.1675
▁обстоятельствам	-11.1679
ъяв	-11.1679
ческий	-11.1681
уется	-11.1685
▁добр	-11.1685
▁кратко	-11.1689
джаза	-11.1692
▁автостоп	-11.1692
▁обратить	-11.1692
▁любым	-11.1695
▁иску	-11.1696
▁предусматрива	-11.1696
▁зеркал	-11.1698
▁уверенность	-11.1698
▁улыба	-11.1699
▁стадион	-11.1699
▁качественно	-11.1701
▁Кот	-11.1702
▁человеч	-11.1702
▁цифр	-11.1703
▁эпидеми	-11.1703
▁Данаилов	-11.1704
▁бульвар	-11.1704
▁всерьёз	-11.1704
▁газопровод	-11.1704
▁здании	-11.1704
▁инстинкт	-11.1704
▁отсутствуют	-11.1704
▁пейзаж	-11.1704
▁подразделения	-11.1704
▁пользователю	-11.1704
▁тенденции	-11.1704
▁хранение	-11.1704
▁шоссе	-11.1704
▁пещер	-11.1704
▁последнем	-11.1704
▁реактор	-11.1704
▁зовут	-11.1704
▁барьер	-11.1704
▁спикер	-11.1704
▁девочки	-11.1704
▁природу	-11.1704
▁вещь	-11.1704
▁рамки	-11.1704
▁конструкция	-11.1704
▁Кубок	-11.1704
▁подарок	-11.1704
▁перечень	-11.1704
▁рассчитывать	-11.1705
▁хлоп	-11.1705
▁помогают	-11.1705
▁пусты	-11.1705
▁плавания	-11.1705
▁состоялась	-11.1705
▁двигаться	-11.1706
▁Место	-11.1706
▁заработал	-11.1707
▁говорим	-11.1707
▁курения	-11.1708
▁особой	-11.1709
▁джаза	-11.1709
▁Считается	-11.1709
ившие	-11.1709
данные	-11.1709
▁Образ	-11.171
▁опасности	-11.1712
▁Конфуция	-11.1713
▁якут	-11.1715
▁чемпионат	-11.1715
▁объединение	-11.1716
▁Две	-11.1717
▁выяснить	-11.1718
▁коров	-11.1718
▁сетево	-11.1719
▁сосуд	-11.172
▁Долго	-11.172
▁охотно	-11.1721
▁дополнительн	-11.1721
▁преступников	-11.1722
▁свободе	-11.1724
▁стоп	-11.1724
▁неизвестны	-11.1725
крест	-11.1726
▁питерск	-11.1727
▁звер	-11.1728
ts	-11.173
▁гражданами	-11.1731
age	-11.1731
▁ногами	-11.1732
▁проектирование	-11.1732
▁показания	-11.1734
▁пассажиров	-11.1734
▁сокращения	-11.1735
▁промежуточны	-11.1735
▁Норвегии	-11.1738
▁развиваться	-11.1738
▁организмов	-11.1738
▁политикой	-11.174
▁экспедиции	-11.174
▁принадлежал	-11.1743
▁грудь	-11.1743
▁спасти	-11.1744
▁Пус	-11.1747
▁друзьями	-11.1747
▁действиями	-11.175
▁зону	-11.175
▁спросить	-11.175
исп	-11.175
▁являлся	-11.1751
писал	-11.1752
▁жизне	-11.1753
▁объяснял	-11.1753
▁сроком	-11.1753
▁стратегически	-11.1754
▁ужаса	-11.1755
▁телефонов	-11.1755
▁строение	-11.1756
▁патриарх	-11.1759
ЕЛ	-11.1762
▁встречу	-11.1763
▁религиозно	-11.1764
▁аналогичн	-11.1766
▁дай	-11.1767
▁Перв	-11.1767
▁Анти	-11.1769
▁тяг	-11.1769
▁выброс	-11.1771
льной	-11.1771
▁серьезн	-11.1771
▁Востока	-11.1771
▁Команд	-11.1772
▁профессора	-11.1773
▁поддерживают	-11.1773
5.	-11.1773
▁ходил	-11.1774
▁развед	-11.1775
▁правительством	-11.1776
▁Нового	-11.1779
▁ставил	-11.178
▁Пушкин	-11.1784
▁Бут	-11.1784
▁музыкальной	-11.1786
▁постановка	-11.1787
тина	-11.1789
▁персон	-11.1791
▁финал	-11.1794
▁готовность	-11.1795
▁глубок	-11.1795
▁фраз	-11.1796
▁изменени	-11.1797
▁статьями	-11.1798
▁Обще	-11.18
льник	-11.18
▁величин	-11.1804
▁членом	-11.1805
▁волокна	-11.1806
бок	-11.1807
▁Эл	-11.181
▁спрашивает	-11.181
▁механизмы	-11.1814
ide	-11.1814
▁существу	-11.1814
▁оперативно	-11.1815
▁задан	-11.1816
▁пожара	-11.1817
шт	-11.1821
нимая	-11.1822
▁довод	-11.1823
пустить	-11.1825
бирается	-11.1827
▁жила	-11.1827
33	-11.1829
▁предметы	-11.1829
американск	-11.183
▁Джо	-11.183
▁объектом	-11.1831
Сколково	-11.1832
ходила	-11.1832
особенно	-11.1835
▁содержат	-11.1835
очень	-11.1835
сторон	-11.1835
▁планшет	-11.1839
▁серьезны	-11.1841
▁обстоятельствах	-11.1841
▁судить	-11.1842
▁куплен	-11.1845
▁дворец	-11.1846
▁Кун	-11.1847
ведут	-11.1849
▁жестко	-11.1849
▁умел	-11.1849
▁вспоминает	-11.1851
▁абсурд	-11.1853
▁вокзала	-11.1854
▁французском	-11.1854
▁детски	-11.1855
▁Ир	-11.1858
▁возможна	-11.1858
▁собеседник	-11.1862
стям	-11.1863
▁НЕ	-11.1863
▁Татарстан	-11.1864
▁приобрел	-11.1864
▁собора	-11.1864
▁удачны	-11.1865
▁достигл	-11.1866
▁залог	-11.1868
▁заложен	-11.1869
▁проезд	-11.1875
▁результатом	-11.1875
▁толп	-11.1875
▁турнира	-11.1877
▁делов	-11.1882
▁борт	-11.1882
анк	-11.1885
▁оружием	-11.1885
▁этапа	-11.1887
▁гнезд	-11.1888
▁чуд	-11.1892
строил	-11.1893
▁сорок	-11.1895
▁вступить	-11.19
▁Мур	-11.1901
▁Париж	-11.1901
▁изложен	-11.1906
▁корабле	-11.1911
▁Анд	-11.1914
▁газете	-11.1917
▁сообща	-11.1917
ak	-11.1918
толк	-11.1919
емым	-11.1919
менее	-11.1919
валь	-11.192
▁Le	-11.1921
▁пребыва	-11.1921
▁выполняют	-11.1922
▁присущи	-11.1922
▁банки	-11.1924
▁аналогично	-11.1926
способ	-11.1926
▁95	-11.1928
▁дискурса	-11.193
Ch	-11.193
▁Северо	-11.193
▁содержа	-11.1932
▁местным	-11.1934
47	-11.1936
▁инфраструктур	-11.1939
▁Bo	-11.1942
даётся	-11.1942
▁называл	-11.1943
-4	-11.1945
▁работах	-11.1947
▁бомб	-11.195
▁светло	-11.195
▁астроном	-11.195
▁просмотра	-11.1952
▁принимали	-11.1952
▁увы	-11.1955
▁Эй	-11.1956
▁рефлекс	-11.1956
чьи	-11.1956
▁Ленин	-11.1959
▁объявили	-11.1965
▁ожидани	-11.1966
▁ставят	-11.1967
иты	-11.1969
▁Республика	-11.1972
▁обвиня	-11.1974
▁Состав	-11.1974
▁производитель	-11.1976
▁органах	-11.1978
▁Мандалор	-11.198
▁вывода	-11.1981
▁York	-11.1981
▁Вероятно	-11.1981
▁Конституцию	-11.1981
▁Пользовател	-11.1981
▁автомобили	-11.1981
▁бессмысленно	-11.1981
▁задолженности	-11.1981
▁корректно	-11.1981
▁пятидесяти	-11.1981
▁соблазн	-11.1981
▁сформулирован	-11.1981
▁числу	-11.1981
▁вызвать	-11.1981
▁писателем	-11.1981
▁строительстве	-11.1981
▁СНГ	-11.1981
▁Порядок	-11.1981
▁Осетии	-11.1981
▁теорий	-11.1981
нтифик	-11.1981
▁версий	-11.1981
▁Иначе	-11.1981
▁начнет	-11.1982
▁ткани	-11.1982
▁армия	-11.1982
▁сестра	-11.1982
▁модуль	-11.1982
▁информацией	-11.1982
▁судьи	-11.1982
▁кулак	-11.1982
▁служб	-11.1982
▁процвета	-11.1982
▁семинар	-11.1983
▁Ред	-11.1983
▁TV	-11.1983
туш	-11.1983
▁дешевле	-11.1984
▁Монголии	-11.1984
▁исследовании	-11.1984
▁обращении	-11.1984
▁сообщалось	-11.1984
▁приобрести	-11.1985
▁проектируем	-11.1985
▁вторую	-11.1985
▁заинтересованны	-11.1985
▁обсудить	-11.1985
▁убеждения	-11.1986
▁насилие	-11.1986
▁высокую	-11.1988
▁Дэй	-11.1988
▁изданий	-11.1989
▁обратились	-11.199
▁препаратов	-11.199
▁УПК	-11.1991
▁Штаты	-11.1991
▁Pro	-11.1992
▁привыкли	-11.1993
▁чудо	-11.1993
глаз	-11.1994
▁раннего	-11.1996
▁меньшинств	-11.1996
▁управлять	-11.1996
▁Сеть	-11.1997
▁родственников	-11.1997
▁указания	-11.1999
▁плеч	-11.2
▁хромосом	-11.2
▁производственны	-11.2001
▁возвращения	-11.2002
▁гром	-11.2004
▁признак	-11.2005
▁оказыва	-11.2005
▁получены	-11.2005
▁20%	-11.2006
▁рай	-11.2007
▁актуальны	-11.2008
▁трудности	-11.2009
▁усовершенствова	-11.2009
▁закончил	-11.2009
▁манер	-11.201
▁приложение	-11.2012
меха	-11.2012
водим	-11.2017
▁экономическом	-11.2021
резать	-11.2024
93	-11.2025
▁Проверен	-11.2026
▁близких	-11.2026
▁рассказа	-11.2027
▁средневеков	-11.2027
land	-11.2028
▁Чего	-11.2028
ектор	-11.203
▁обнаружены	-11.2032
▁дискурс	-11.2033
▁перевозки	-11.2034
-0	-11.2034
▁полная	-11.2034
▁невероятно	-11.2036
▁противоречие	-11.2036
▁банков	-11.2037
▁проф	-11.2038
▁поправки	-11.2038
▁слома	-11.2039
▁расположение	-11.2042
▁мягк	-11.2043
▁церемонии	-11.2043
▁смену	-11.2045
▁конкурентов	-11.2045
▁отдать	-11.2045
▁выплаты	-11.2046
ИН	-11.2046
▁задание	-11.2046
▁падение	-11.2048
▁жестоко	-11.2049
▁Основным	-11.205
▁гостинице	-11.205
▁5)	-11.205
Аль	-11.2051
▁компенсации	-11.2051
▁критерии	-11.2051
▁указа	-11.2052
чными	-11.2052
▁китайск	-11.2054
▁культуру	-11.2054
▁адреса	-11.2055
онных	-11.2055
▁Наш	-11.2055
▁берут	-11.2056
ставляют	-11.2057
▁эффективны	-11.2058
строить	-11.206
▁поэта	-11.2066
▁соответствующим	-11.2067
▁Сол	-11.2069
▁матче	-11.207
▁сайтов	-11.207
▁функционировани	-11.2073
▁фан	-11.2074
▁телефону	-11.2074
▁План	-11.2077
▁дуб	-11.2082
▁морально	-11.2083
▁Вместо	-11.2086
▁собственном	-11.2086
▁всячески	-11.2086
▁рассматривал	-11.2087
АТ	-11.2087
лить	-11.2088
▁фирма	-11.2091
▁славян	-11.2091
▁совершать	-11.2091
само	-11.2093
▁фронта	-11.2093
res	-11.2094
▁Роди	-11.2096
▁гостя	-11.2098
▁фр	-11.2099
▁общественно	-11.21
▁Саш	-11.21
▁волю	-11.2101
▁частицы	-11.2104
▁смет	-11.2104
▁критиков	-11.2104
▁Еф	-11.2106
▁враг	-11.2107
водятся	-11.2112
▁соверша	-11.2112
▁перевал	-11.2114
местить	-11.2114
▁садов	-11.2115
▁удел	-11.2117
▁привлечени	-11.2119
финансы	-11.212
государственн	-11.2121
▁политик	-11.2125
▁легенд	-11.2126
▁кажды	-11.2129
▁Русски	-11.2133
▁зла	-11.2134
▁пласт	-11.2134
▁оптимальн	-11.2135
метров	-11.2136
▁уничтожа	-11.2137
▁журналы	-11.2141
▁монах	-11.2141
▁устраива	-11.2141
▁падает	-11.2142
▁Андре	-11.2142
шек	-11.2145
▁дорогой	-11.2146
▁стояли	-11.2148
Так	-11.2148
▁примеры	-11.215
▁хозяйственн	-11.2151
Дж	-11.2154
кури	-11.2154
▁превращает	-11.2156
исполн	-11.2158
pa	-11.2158
▁обычного	-11.2158
▁разговоры	-11.216
▁попадает	-11.2161
авших	-11.2161
▁уча	-11.2162
ителем	-11.2164
▁предварительны	-11.2173
▁встал	-11.2174
▁внук	-11.2174
▁стресс	-11.2177
▁своеобразн	-11.2179
▁хлеба	-11.2179
лоб	-11.218
▁форуме	-11.2181
одного	-11.2181
31	-11.2182
▁разделя	-11.2182
▁взаимн	-11.2186
▁показан	-11.2188
▁Кавказ	-11.2188
рожден	-11.2189
▁носить	-11.2189
▁звезда	-11.219
▁определя	-11.219
▁пишу	-11.2192
▁сцен	-11.2192
▁врача	-11.2194
фир	-11.2194
▁слава	-11.2194
▁Берн	-11.2196
▁аналогичны	-11.2197
▁наибольш	-11.2199
▁Крас	-11.2201
▁хотела	-11.2201
▁автомат	-11.2202
▁контр	-11.2206
одно	-11.2208
ницу	-11.2213
▁общие	-11.2217
▁бывшим	-11.2217
▁заказчика	-11.2217
▁ведения	-11.2217
79	-11.2221
▁королевск	-11.2224
▁монет	-11.2226
▁стоящ	-11.2226
купа	-11.2233
▁сохранил	-11.2234
чества	-11.2238
ОМ	-11.2238
▁тариф	-11.2242
▁астронавт	-11.2242
▁мисси	-11.2244
▁опытом	-11.2246
og	-11.2247
▁Вин	-11.2248
▁зрителя	-11.2253
▁школьн	-11.2253
▁акционер	-11.2256
▁продолжит	-11.2258
▁фанат	-11.2258
▁войн	-11.2259
▁легк	-11.226
▁кинотеатр	-11.2261
▁череп	-11.2262
▁прекраща	-11.2263
▁эфире	-11.2265
▁Джу	-11.2266
76	-11.2267
▁воскрес	-11.2267
▁Башлачёв	-11.2267
▁Григорьев	-11.2267
▁Конгресс	-11.2267
▁Процесс	-11.2267
▁Соответственно	-11.2267
▁выставке	-11.2267
▁герцог	-11.2267
▁движений	-11.2267
▁заведений	-11.2267
▁заставляет	-11.2267
▁комиссия	-11.2267
▁лозунг	-11.2267
▁попросту	-11.2267
▁предположение	-11.2267
▁происходят	-11.2267
▁спонсор	-11.2267
▁тюрьмы	-11.2267
▁МЧС	-11.2267
▁ждёт	-11.2267
▁лагеря	-11.2267
▁сравнении	-11.2267
▁Казалось	-11.2267
▁монгольск	-11.2267
▁Кремля	-11.2267
▁областей	-11.2267
▁отсюда	-11.2267
▁Наверное	-11.2267
▁издателей	-11.2267
▁обширн	-11.2267
▁почувствовал	-11.2267
▁решительно	-11.2267
▁NASA	-11.2267
▁путей	-11.2267
▁вызывал	-11.2267
▁мандалорцев	-11.2268
▁черед	-11.2268
▁Али	-11.2268
▁отцом	-11.2268
▁Фактически	-11.2268
▁разрешить	-11.2269
▁доверие	-11.2269
▁ждут	-11.2269
▁общаться	-11.2269
▁ТНК	-11.2269
▁применении	-11.227
▁Елена	-11.227
▁собрались	-11.2271
▁предложили	-11.2271
▁энерго	-11.2271
▁образований	-11.2273
▁короб	-11.2273
▁сквер	-11.2274
ладельцем	-11.2274
▁востоке	-11.2274
▁каталог	-11.2274
▁огне	-11.2275
▁цифра	-11.2275
▁помнить	-11.2275
▁бензин	-11.2278
▁излишне	-11.2278
▁недопустимо	-11.228
▁контролем	-11.228
летня	-11.228
▁праздника	-11.2281
▁взрослых	-11.2281
▁Великобритания	-11.2282
тельную	-11.2283
▁пользование	-11.2283
▁снижения	-11.2284
▁выросли	-11.2284
▁серия	-11.2284
▁Роль	-11.2284
▁дисциплин	-11.2286
▁ничто	-11.2287
▁подготовка	-11.2288
▁ждал	-11.2288
преемник	-11.2288
▁Точно	-11.2289
▁оформление	-11.2289
▁возглавил	-11.229
▁смешанн	-11.2291
▁практики	-11.2292
▁конкурсе	-11.2293
▁известная	-11.2298
▁открыти	-11.2298
▁находит	-11.23
риз	-11.2302
▁железнодорожн	-11.2302
▁ци	-11.2302
▁ведется	-11.2304
▁увеличен	-11.2305
▁прошедши	-11.2306
▁совести	-11.2306
▁закат	-11.2306
▁обещает	-11.2306
▁сталкива	-11.2308
▁отнести	-11.2308
▁толков	-11.2309
▁Игор	-11.231
несла	-11.231
▁гуманитарны	-11.2311
▁выборе	-11.2311
▁ушли	-11.2312
▁прямы	-11.2313
▁магазинов	-11.2313
mp	-11.2315
▁большому	-11.2316
▁покупке	-11.2317
▁технической	-11.2317
▁природно	-11.2318
▁ванн	-11.2318
▁Королевск	-11.2318
▁награды	-11.2319
▁расчетов	-11.2319
▁реке	-11.2322
▁действиях	-11.2322
▁Американски	-11.2324
ушку	-11.2325
▁пьесы	-11.2325
риц	-11.2327
▁прекрасн	-11.2328
▁забор	-11.2328
▁дли	-11.2328
▁раду	-11.2329
▁образцов	-11.2329
▁письменной	-11.233
▁Савонарола	-11.233
знача	-11.2331
▁детской	-11.2335
▁долгосрочн	-11.2335
▁наглядно	-11.2336
▁альянса	-11.2338
▁телескоп	-11.2339
▁голода	-11.2341
▁Мартин	-11.2342
▁институтов	-11.2343
тические	-11.2345
▁академическ	-11.2346
▁лент	-11.2346
шат	-11.2346
▁местами	-11.2346
▁эффектов	-11.2347
▁атмосфер	-11.2347
▁единственной	-11.2349
живал	-11.2353
▁Вал	-11.2353
писок	-11.2354
▁миллионы	-11.2357
▁залив	-11.2358
ицу	-11.236
▁критически	-11.2361
▁половиной	-11.2362
▁соперник	-11.2363
▁великая	-11.2364
существ	-11.2364
▁журналов	-11.2365
▁организациями	-11.2366
▁Киева	-11.2369
▁2,5	-11.237
▁закрыв	-11.2371
▁препод	-11.2371
▁европейски	-11.2371
▁блюд	-11.2375
деление	-11.2376
▁дико	-11.2378
95	-11.2379
▁спора	-11.238
-10	-11.238
▁Лужкова	-11.2383
▁обусловлен	-11.2384
▁бит	-11.2386
▁выдвинут	-11.2387
▁успехом	-11.239
▁Man	-11.2391
▁установление	-11.2391
▁рекламн	-11.2393
▁Вулфа	-11.2397
▁актриса	-11.2397
88	-11.2398
▁Америка	-11.2399
▁ввиду	-11.2399
▁саду	-11.2403
▁чемпионате	-11.2404
▁психологическ	-11.2406
звезд	-11.2407
▁сильным	-11.2408
▁обсуждение	-11.2409
▁называемых	-11.2409
▁оказывает	-11.241
Медиа	-11.2412
*	-11.2413
полз	-11.2414
▁Мун	-11.2414
▁пита	-11.2415
эль	-11.2416
месячн	-11.2419
▁Акт	-11.2421
▁либерал	-11.2422
▁восьм	-11.2423
▁листов	-11.2424
▁четыр	-11.2424
▁заяв	-11.2425
▁подать	-11.243
▁исполнять	-11.243
▁подверга	-11.2435
▁пропал	-11.2437
▁To	-11.2441
▁мусор	-11.2442
▁оперативн	-11.2442
▁Лужков	-11.2443
our	-11.2447
▁социолог	-11.2453
писки	-11.2454
▁совершен	-11.246
art	-11.2461
группы	-11.2462
гг	-11.2463
▁удивля	-11.2465
▁механизма	-11.2469
▁рак	-11.247
вич	-11.2471
▁формате	-11.2473
маг	-11.2474
▁гражданским	-11.2474
ina	-11.2476
тянуть	-11.2476
▁Геракла	-11.2478
▁гад	-11.2478
▁подписали	-11.2479
▁сцена	-11.248
▁свидетельства	-11.248
тическая	-11.2484
▁законодательно	-11.2485
▁фабрик	-11.2485
▁законам	-11.2485
▁критику	-11.2486
▁самолет	-11.2489
▁элементарн	-11.2492
▁удовольствие	-11.2493
▁обращает	-11.2496
▁расширя	-11.2496
▁полковник	-11.2497
▁студентам	-11.2497
▁разно	-11.2505
▁Кук	-11.2505
▁способствова	-11.2507
▁четверт	-11.2509
▁интенсивн	-11.2511
▁цит	-11.2514
▁рука	-11.2517
▁вещество	-11.2518
▁гигант	-11.2518
▁странам	-11.2519
▁зафиксирован	-11.2521
▁выступили	-11.2522
уша	-11.2527
▁идее	-11.253
чков	-11.2533
▁поклон	-11.2533
▁Тер	-11.2533
▁i	-11.2534
▁одобрен	-11.2535
▁инвалид	-11.2536
▁76	-11.2536
▁стрел	-11.2536
▁приглашен	-11.2539
▁нарко	-11.2539
ящая	-11.2543
▁болезнь	-11.2544
▁исполнен	-11.2547
▁согласие	-11.2548
▁взросл	-11.2548
▁психически	-11.2549
ведению	-11.2551
▁помнит	-11.2554
▁водород	-11.2556
▁обвинил	-11.2557
▁пра	-11.2559
▁чувствую	-11.2561
▁Достаточно	-11.2561
▁Понятно	-11.2561
▁Украиной	-11.2561
▁восприятие	-11.2561
▁гарантирует	-11.2561
▁загадочн	-11.2561
▁канцлер	-11.2561
▁лошади	-11.2561
▁модификаци	-11.2561
▁наследник	-11.2561
▁передвижения	-11.2561
▁публики	-11.2561
▁сопровождени	-11.2561
▁фамилии	-11.2561
▁кислот	-11.2561
▁социальный	-11.2561
▁Надеюсь	-11.2561
▁башни	-11.2561
▁управляющи	-11.2561
▁Действительно	-11.2561
▁свидетельствуют	-11.2561
▁Причиной	-11.2561
▁Известны	-11.2561
▁тезис	-11.2561
▁Текст	-11.2561
▁девушку	-11.2561
▁монтаж	-11.2561
▁метафор	-11.2562
▁текущего	-11.2562
▁Буданов	-11.2562
▁пойдет	-11.2562
▁Кипр	-11.2563
▁1972	-11.2563
▁присутствии	-11.2563
▁будущих	-11.2563
▁побывал	-11.2563
▁Ирина	-11.2563
▁выручк	-11.2563
▁переговорах	-11.2563
▁нарушении	-11.2564
▁совершенны	-11.2564
▁гигиенически	-11.2564
▁рассмотрению	-11.2564
▁Неужели	-11.2564
▁допрос	-11.2565
▁сторонники	-11.2565
▁учёных	-11.2565
ходящие	-11.2565
▁Витали	-11.2565
▁проспект	-11.2565
▁дель	-11.2566
▁заверша	-11.2566
▁загрязнение	-11.2566
▁братьев	-11.2567
▁лазер	-11.2568
▁младши	-11.2569
▁адекватны	-11.2569
▁говорилось	-11.2571
▁существенные	-11.2573
цзы	-11.2573
кажутся	-11.2575
▁уголовн	-11.2575
▁верующим	-11.2576
▁перемещения	-11.2578
казывать	-11.258
▁Наций	-11.2582
▁умерла	-11.2582
▁Поиск	-11.2583
▁владельц	-11.2583
▁установк	-11.2583
▁направлений	-11.2589
▁коррупции	-11.259
хватить	-11.259
▁Дуров	-11.2591
▁претензии	-11.2596
▁крепко	-11.2597
▁Эк	-11.2598
▁XV	-11.2601
ола	-11.2601
▁ожидается	-11.2601
▁атома	-11.2602
рвал	-11.2602
▁предков	-11.2603
▁террористическ	-11.2603
▁Филипп	-11.2604
▁называться	-11.2604
▁Be	-11.2606
▁Франция	-11.2607
▁заменить	-11.2608
▁безопасн	-11.2609
▁впечатления	-11.2609
62	-11.261
▁родной	-11.2611
▁соревнованиях	-11.2612
▁рев	-11.2614
▁скульптуры	-11.2614
▁улицах	-11.2615
▁километра	-11.2616
▁необходим	-11.2616
ивание	-11.2616
▁девяти	-11.2617
▁сформирован	-11.2617
▁этапов	-11.2619
овсем	-11.2619
▁полётов	-11.262
▁святого	-11.2622
▁энергетическо	-11.2623
▁заполнен	-11.2623
▁флагом	-11.2624
▁взаимосвязи	-11.2626
▁проектом	-11.2626
▁актами	-11.2626
▁утвержден	-11.2632
▁красным	-11.2634
▁изобразительно	-11.2643
нья	-11.2644
▁этапах	-11.2644
▁Георги	-11.2644
ence	-11.2646
▁попытк	-11.2646
То	-11.2646
▁отцов	-11.2647
▁папы	-11.2647
ывается	-11.2649
льные	-11.265
▁увлека	-11.265
▁Современн	-11.2651
▁ваших	-11.2651
▁вуза	-11.2653
▁участвовали	-11.2656
▁крах	-11.2656
▁бирже	-11.266
▁новость	-11.2661
▁защитник	-11.2662
▁распоряжение	-11.2663
▁центров	-11.2664
▁интересах	-11.2664
▁проходили	-11.2664
Чёрн	-11.2664
▁металл	-11.2666
вот	-11.2667
▁Фра	-11.2667
нули	-11.2668
ant	-11.2672
▁барина	-11.2673
▁памятника	-11.2674
▁удал	-11.2675
▁детско	-11.2676
▁называ	-11.2676
▁Рима	-11.2676
верс	-11.2678
учению	-11.2678
ходящим	-11.2679
▁пошлин	-11.2682
▁терминал	-11.2683
▁лучшее	-11.2684
▁оператор	-11.2685
▁Саша	-11.2687
оценивается	-11.2688
ЕТ	-11.2691
где	-11.2695
▁танцев	-11.2697
▁музыкальны	-11.27
▁называемый	-11.2701
▁фактов	-11.2704
▁волна	-11.2705
▁глупы	-11.2705
▁изменен	-11.271
родных	-11.271
▁Рус	-11.2711
▁генеральны	-11.2711
▁библиотеке	-11.2713
доступ	-11.2713
▁разного	-11.2714
▁определяем	-11.2715
считать	-11.2716
▁развиты	-11.2717
▁критери	-11.2717
▁грамот	-11.2717
▁Газ	-11.2717
▁торговы	-11.2718
ate	-11.2719
шоу	-11.272
ключение	-11.2722
рил	-11.273
▁Пап	-11.2731
▁развал	-11.2731
▁прошлое	-11.2731
▁помещением	-11.2731
ленный	-11.2732
▁амвон	-11.2735
елей	-11.2737
пустил	-11.2737
ированный	-11.2741
дешев	-11.2742
ительным	-11.2745
▁издан	-11.2746
вшему	-11.2749
предположительно	-11.275
▁субъект	-11.2752
ment	-11.2753
▁психологически	-11.2755
▁основного	-11.2756
▁Центра	-11.2756
▁достига	-11.2759
рождение	-11.2761
▁храни	-11.2762
▁компенсаци	-11.2763
▁индивида	-11.2765
ложены	-11.2766
▁сложность	-11.2768
оры	-11.2773
▁программист	-11.2774
▁канона	-11.2775
▁общин	-11.2776
▁этак	-11.2777
▁парка	-11.2779
▁еду	-11.2779
▁метра	-11.278
данных	-11.2781
кот	-11.2783
▁читает	-11.2783
▁безопасны	-11.2784
ующие	-11.2785
▁генетически	-11.2786
▁качеством	-11.2786
ушка	-11.2788
▁возможной	-11.2788
▁отвод	-11.2789
▁постсоветск	-11.2798
▁послал	-11.2798
▁колен	-11.28
▁воли	-11.2804
▁ток	-11.2811
▁портрета	-11.2813
▁Силин	-11.2813
▁завершен	-11.2814
культ	-11.2816
56	-11.2816
▁противоречит	-11.2817
▁южны	-11.2817
▁церковн	-11.2826
▁известна	-11.2831
▁преимущество	-11.2832
▁меди	-11.2838
▁признает	-11.2841
бежать	-11.2843
▁вуз	-11.2844
▁Основно	-11.2845
ровень	-11.2846
▁обет	-11.2848
▁Фри	-11.2849
▁регистр	-11.2849
▁Организаци	-11.285
▁Новгород	-11.2851
▁набрал	-11.2851
▁блоге	-11.2851
▁ведомств	-11.2852
ившиеся	-11.2853
▁космонавт	-11.2853
задач	-11.2854
▁аудио	-11.2855
▁парадокс	-11.2856
▁броса	-11.2856
▁сюжета	-11.2856
▁боле	-11.2861
▁колокол	-11.2863
▁(4	-11.2863
▁случаю	-11.2863
вшими	-11.2864
▁Парламент	-11.2864
▁шрифт	-11.2864
▁Amazon	-11.2864
▁Администраци	-11.2864
▁Иерусалим	-11.2864
▁Калифорнии	-11.2864
▁Клеопатра	-11.2864
▁Конституцией	-11.2864
▁архитектуре	-11.2864
▁деревни	-11.2864
▁заболеваний	-11.2864
▁записей	-11.2864
▁книжки	-11.2864
▁обычный	-11.2864
▁повлиял	-11.2864
▁предупредил	-11.2864
▁пресловут	-11.2864
▁реакцию	-11.2864
▁слышит	-11.2864
▁согласен	-11.2864
▁фаворит	-11.2864
▁шедевр	-11.2864
▁интриг	-11.2864
▁Фарерски	-11.2864
▁растений	-11.2864
▁ФАС	-11.2864
▁сценарий	-11.2864
▁Короче	-11.2864
▁килограмм	-11.2864
▁баннер	-11.2864
▁демократически	-11.2864
▁оценок	-11.2864
▁лагере	-11.2864
▁покупателей	-11.2864
▁характеризуют	-11.2864
▁растёт	-11.2864
▁детства	-11.2864
▁подъем	-11.2864
▁обычные	-11.2864
▁армию	-11.2864
▁хроник	-11.2864
▁TEX	-11.2864
▁мгновенно	-11.2864
▁почтовы	-11.2864
▁бешен	-11.2864
▁важную	-11.2864
▁собою	-11.2865
▁стремительно	-11.2865
▁нормативно	-11.2865
▁реклама	-11.2865
▁позади	-11.2865
▁подчинен	-11.2865
▁увидев	-11.2865
▁взыскании	-11.2865
▁журналистам	-11.2865
▁скелет	-11.2865
▁избыточн	-11.2865
▁смесь	-11.2865
▁способа	-11.2865
▁пойдёт	-11.2866
▁заново	-11.2866
▁дошкольн	-11.2866
▁кошек	-11.2866
▁растущ	-11.2866
▁1977	-11.2866
▁проводим	-11.2866
▁примут	-11.2866
▁1984	-11.2867
▁уволен	-11.2867
▁картине	-11.2867
▁ведущие	-11.2868
▁минус	-11.2868
▁статистически	-11.2869
▁развиваются	-11.2869
▁договориться	-11.2869
▁нефте	-11.2869
▁предложить	-11.287
▁осторожно	-11.2871
▁всевозможны	-11.2871
▁ранения	-11.2871
▁рыж	-11.2871
▁мистическ	-11.2871
▁возвращается	-11.2872
▁серию	-11.2873
▁ЦБ	-11.2873
▁взрослые	-11.2874
bo	-11.2874
▁слез	-11.2874
▁защитить	-11.2874
ИС	-11.2874
▁окружающих	-11.2874
▁смотрю	-11.2875
▁презентации	-11.2876
овская	-11.2876
▁осталась	-11.2877
▁подробности	-11.2877
▁осуществлени	-11.2878
▁Никаки	-11.2879
▁дву	-11.2879
▁моменту	-11.288
▁контролировать	-11.288
▁хорошей	-11.2881
▁Уж	-11.2882
▁минимально	-11.2884
щин	-11.2884
▁возникли	-11.2884
▁сущность	-11.2886
▁перевести	-11.2887
▁58	-11.2887
▁попробовать	-11.2887
▁откры	-11.2888
▁психическ	-11.2888
▁девиц	-11.2889
▁спутника	-11.2889
▁удаётся	-11.2889
лена	-11.289
▁любить	-11.2891
▁оставив	-11.2891
▁эмоций	-11.2891
▁охранник	-11.2892
▁укрепления	-11.2892
лизу	-11.2892
▁качественного	-11.2893
▁юридической	-11.2896
▁составили	-11.2897
▁Петербурге	-11.2899
▁военный	-11.2899
▁Лондон	-11.29
▁давайте	-11.29
▁инициативы	-11.29
лые	-11.2901
▁достигается	-11.2902
▁река	-11.2902
▁крупного	-11.2903
▁обознача	-11.2906
▁продать	-11.2906
▁полезны	-11.2907
▁стрелк	-11.2907
▁ручк	-11.2908
▁сговор	-11.2908
редняя	-11.2909
▁атмосферу	-11.2909
▁смут	-11.2911
▁возмещени	-11.2912
▁Жизнь	-11.2913
▁штатов	-11.2913
▁огромная	-11.2914
▁настроение	-11.2914
▁атаки	-11.2915
▁объеме	-11.2916
▁предельны	-11.2916
▁Матери	-11.2918
▁обеспечивать	-11.2918
▁Срок	-11.2918
▁подавляюще	-11.2919
Но	-11.2921
TC	-11.2923
▁изъят	-11.2923
▁Бы	-11.2924
▁популярной	-11.2925
няли	-11.2926
▁установленным	-11.2928
▁сокращ	-11.2928
▁немецкий	-11.293
▁инвестор	-11.293
▁факторы	-11.2931
▁Центр	-11.2931
▁палаты	-11.2931
▁перешли	-11.2931
▁Семи	-11.2935
▁культурной	-11.2935
крывают	-11.2937
▁моно	-11.2937
▁дешев	-11.2937
▁хим	-11.2938
▁центральны	-11.2939
▁иностранный	-11.2939
чей	-11.2941
▁исключа	-11.2941
▁юге	-11.2943
▁магазины	-11.2946
▁сложной	-11.2946
▁задать	-11.2946
▁He	-11.2946
▁нынешних	-11.2948
клонение	-11.2948
▁проводил	-11.295
ty	-11.2951
▁Егор	-11.2952
ковского	-11.2956
▁счету	-11.2957
▁утрат	-11.2957
▁католическ	-11.2957
▁усилий	-11.2964
крит	-11.2965
▁геном	-11.297
▁вынесен	-11.297
▁официальном	-11.2971
▁Интерес	-11.2971
▁разумно	-11.2974
▁временное	-11.2975
работка	-11.2977
▁православным	-11.2979
▁давали	-11.298
▁холодно	-11.298
▁столкну	-11.2981
▁печата	-11.2986
▁трубы	-11.2986
▁узнали	-11.2987
▁онлайнов	-11.2987
▁определяющ	-11.2988
▁мировом	-11.2989
тинг	-11.299
▁приобретение	-11.299
41	-11.2991
▁Бес	-11.2991
▁реальные	-11.2991
▁гитар	-11.2993
▁Лун	-11.2999
▁написала	-11.3001
▁необходимое	-11.3006
яются	-11.3008
▁развод	-11.301
вещани	-11.3011
▁братом	-11.3013
▁звука	-11.3014
ud	-11.3014
▁Рим	-11.3023
▁54	-11.3025
tor	-11.3027
▁выходе	-11.3027
▁Северного	-11.3028
▁сборы	-11.3029
▁состоял	-11.303
ect	-11.3033
щийся	-11.3036
▁удобн	-11.3041
▁пат	-11.3041
▁тупо	-11.3046
инский	-11.3047
▁американском	-11.3048
▁учить	-11.305
перва	-11.3053
▁Михалков	-11.3058
▁соглашением	-11.3058
ивших	-11.3059
▁специфика	-11.3062
▁30-	-11.3062
▁трети	-11.3065
▁стату	-11.3066
▁взгляды	-11.3067
▁сосредоточен	-11.3068
водить	-11.3068
▁инновационн	-11.3072
▁бирж	-11.3073
▁заявлением	-11.3074
▁воле	-11.308
▁отключ	-11.308
▁Кен	-11.308
▁6)	-11.3082
▁корон	-11.3083
ki	-11.3085
▁оскорбля	-11.3085
вязать	-11.3085
▁насыщен	-11.3089
▁платформа	-11.3089
▁уменьшени	-11.309
звали	-11.3091
▁воспитан	-11.3091
▁1970	-11.3095
▁мирно	-11.3096
Пре	-11.3097
ндер	-11.3099
овском	-11.3099
очного	-11.31
▁родителям	-11.3101
▁потоп	-11.3101
мона	-11.3105
▁западн	-11.3106
▁кандидата	-11.3106
▁берег	-11.3109
▁будуще	-11.311
▁продолжение	-11.3112
71	-11.3112
uc	-11.3113
▁международном	-11.3116
▁получаем	-11.3116
ованные	-11.3117
▁оркестра	-11.3117
▁агентств	-11.3118
▁объедини	-11.3119
инского	-11.3122
▁здрав	-11.3123
▁составляли	-11.3124
▁темп	-11.3125
▁выпускник	-11.3126
▁синтез	-11.3126
личие	-11.3126
ходящий	-11.3126
▁хан	-11.3129
▁воздуха	-11.314
▁гуля	-11.3142
▁живу	-11.3142
▁убежден	-11.3142
▁спектакле	-11.3143
▁двига	-11.3144
▁руководит	-11.3146
▁марш	-11.3149
нор	-11.3151
ером	-11.3153
хан	-11.3153
▁ошибка	-11.3153
▁Жнец	-11.3154
▁устанавливает	-11.3156
▁рассматривает	-11.3157
левых	-11.3157
▁оставлен	-11.3158
▁подразумевает	-11.3162
▁выполняет	-11.3165
нским	-11.3166
▁вреда	-11.3167
▁обстоятельство	-11.3169
▁армян	-11.3169
▁представленны	-11.3169
▁предусмотрен	-11.317
▁Порт	-11.3173
▁иностранны	-11.3175
▁псевдо	-11.3176
▁десятка	-11.3177
Википедия	-11.3177
▁Документ	-11.3177
▁Калиостро	-11.3177
▁Следовательно	-11.3177
▁ТМА	-11.3177
▁выступлений	-11.3177
▁категория	-11.3177
▁колледж	-11.3177
▁комбинаци	-11.3177
▁общепринят	-11.3177
▁пенсии	-11.3177
▁поколений	-11.3177
▁появятся	-11.3177
▁расстоянии	-11.3177
▁расстояния	-11.3177
▁реферат	-11.3177
▁ситуацией	-11.3177
▁сотрудничестве	-11.3177
▁традиций	-11.3177
▁туроператор	-11.3177
▁функцией	-11.3177
▁Депутат	-11.3177
▁Условия	-11.3177
▁лучшую	-11.3177
▁одежда	-11.3177
▁рекламе	-11.3177
▁царя	-11.3177
▁дьявол	-11.3177
▁рынки	-11.3177
▁важнее	-11.3177
▁Земле	-11.3177
▁чётко	-11.3177
▁сомнительн	-11.3177
▁растут	-11.3177
book	-11.3177
▁чёрт	-11.3177
▁клетки	-11.3177
▁регистрацию	-11.3177
▁предъяви	-11.3177
▁Тип	-11.3177
▁мелкие	-11.3177
▁App	-11.3177
няв	-11.3177
▁десятилетие	-11.3177
▁ВВС	-11.3177
▁способствует	-11.3177
▁табак	-11.3177
▁лечение	-11.3177
▁останки	-11.3177
▁почтово	-11.3177
▁Опыт	-11.3177
Атлантис	-11.3178
▁высказываний	-11.3178
▁рассмотреть	-11.3178
▁нелегально	-11.3178
▁1968	-11.3178
▁социальным	-11.3178
▁граница	-11.3179
▁Пекин	-11.3179
▁истины	-11.3179
▁заявлению	-11.3179
▁движущ	-11.3179
изирует	-11.3179
трансляци	-11.318
▁идеологии	-11.318
▁важной	-11.318
▁потребителя	-11.3181
▁напряжения	-11.3181
▁разработанн	-11.3181
▁Вчера	-11.3182
▁поручил	-11.3182
▁уничтожения	-11.3182
▁перечисление	-11.3183
▁стыдно	-11.3183
▁сложнее	-11.3183
▁подчиня	-11.3183
▁удавалось	-11.3183
▁Штатов	-11.3183
▁готовности	-11.3185
▁общественности	-11.3185
▁высказывание	-11.3185
▁бодр	-11.3185
▁прибытия	-11.3186
▁МАГАТЭ	-11.3189
Диска	-11.3189
▁объявления	-11.3189
▁пройдут	-11.3189
▁выросла	-11.319
▁запретить	-11.3191
▁клиник	-11.3193
▁скучно	-11.3194
▁максимум	-11.3195
▁техника	-11.3195
pi	-11.3196
▁нагрева	-11.3197
▁почитать	-11.3197
▁разработчика	-11.3197
▁учеников	-11.3198
▁больницу	-11.3199
les	-11.3199
▁стандартизации	-11.32
▁истери	-11.3202
▁диалектическ	-11.3202
гита	-11.3202
▁руководителем	-11.3202
▁Учитывая	-11.3203
▁голландск	-11.3203
▁Бразилии	-11.3204
▁вопросе	-11.3205
▁французской	-11.3206
▁сохранение	-11.3208
▁алкоголя	-11.3208
▁дальнейшего	-11.3209
▁сохранения	-11.321
▁казни	-11.3211
▁удается	-11.3212
аторы	-11.3213
пеней	-11.3213
▁покупки	-11.3213
▁радиус	-11.3213
ap	-11.3214
▁сборных	-11.3214
▁билетов	-11.3215
▁прийти	-11.3217
▁активов	-11.3217
▁отпущен	-11.3218
▁проводятся	-11.3221
58	-11.3221
ическом	-11.3224
▁приема	-11.3225
▁фразы	-11.3225
▁страда	-11.3226
▁туристическ	-11.3229
▁гидро	-11.3229
▁восточной	-11.323
▁Западной	-11.323
▁стартап	-11.3233
жей	-11.3234
▁уголовны	-11.3235
▁враща	-11.3237
▁гражданских	-11.3238
▁соответствовал	-11.324
▁хозяйств	-11.324
Культура	-11.3241
▁град	-11.3243
▁индивидуальны	-11.3244
▁высокая	-11.3245
▁нервны	-11.3245
▁поддержали	-11.3246
▁светоносно	-11.3246
-7	-11.3246
▁телефона	-11.3247
▁властью	-11.3249
▁удовольствием	-11.325
▁проповед	-11.3251
▁опроса	-11.3251
▁психологическо	-11.3255
ступить	-11.3255
Яндекс	-11.3257
▁формировать	-11.3261
▁последующих	-11.3262
▁учит	-11.3265
▁задаче	-11.3266
▁составляла	-11.3272
▁признакам	-11.3275
▁жертвы	-11.3276
Ну	-11.3278
▁автоматическо	-11.3281
ёс	-11.3282
▁мертв	-11.3284
▁мирного	-11.3288
▁примеров	-11.329
▁гео	-11.3293
брать	-11.3293
▁Дар	-11.3294
пыталась	-11.3294
▁олимпийск	-11.3294
▁отличия	-11.3295
▁фраза	-11.3297
чке	-11.3298
▁звуч	-11.3298
нормальн	-11.3299
▁Алла	-11.33
▁наклон	-11.3302
▁шагом	-11.3302
▁мотив	-11.3303
▁правду	-11.3303
▁предметом	-11.3305
▁сильный	-11.3309
▁выдан	-11.331
ивные	-11.3314
▁подтверждают	-11.3315
▁экономическ	-11.3315
▁туч	-11.3318
▁прохождени	-11.3323
▁горизонт	-11.3323
▁химически	-11.3324
▁бюджетов	-11.3329
▁тайно	-11.333
ТС	-11.3333
▁влияни	-11.3333
▁индийск	-11.3335
▁центром	-11.3339
нижение	-11.3339
▁Гол	-11.3341
▁надел	-11.3342
▁Барака	-11.3343
▁учреждениях	-11.3343
▁левой	-11.3345
▁отправля	-11.3345
▁Театр	-11.3345
▁искусственно	-11.3346
▁бра	-11.3347
стаёт	-11.3349
продукт	-11.3353
▁крепк	-11.3354
ительные	-11.3355
▁проявил	-11.3355
циан	-11.3357
49	-11.3358
▁костюм	-11.336
▁71	-11.336
▁доктора	-11.3363
▁базиру	-11.3364
▁просматрива	-11.3366
▁отправ	-11.3369
лак	-11.3369
▁кал	-11.337
▁реал	-11.3373
▁степ	-11.3373
▁футбольн	-11.3376
биты	-11.3378
▁оказывать	-11.3378
▁достойно	-11.338
▁языки	-11.338
плю	-11.3385
ставлял	-11.3387
▁севере	-11.3388
1,	-11.339
торые	-11.3391
счёт	-11.3392
▁прошедше	-11.3392
▁дому	-11.3393
гли	-11.3394
▁мышечны	-11.3398
вела	-11.3398
▁приобрет	-11.3402
▁состоящ	-11.3402
това	-11.3403
▁текстом	-11.3414
▁плату	-11.3415
Ал	-11.3416
▁Ирак	-11.3417
▁доставк	-11.3417
писание	-11.342
▁еврейско	-11.3423
▁Иванова	-11.3425
▁Сталин	-11.3427
▁виза	-11.3428
▁особенность	-11.3428
нца	-11.3428
светоносн	-11.3428
▁Пал	-11.3428
говорил	-11.3429
▁пит	-11.3429
-5	-11.3434
▁атак	-11.3434
▁Официальны	-11.3435
▁всякие	-11.3435
▁террорист	-11.3435
▁престиж	-11.3437
очник	-11.3439
бель	-11.344
▁Общи	-11.3444
▁сочета	-11.3448
▁историк	-11.3451
ОР	-11.3456
▁станов	-11.3457
▁Дон	-11.3457
▁оценива	-11.3459
▁экологически	-11.346
▁танк	-11.3462
▁Шан	-11.3463
▁барин	-11.3464
свои	-11.3464
меняем	-11.3466
▁Черн	-11.3466
КО	-11.3472
▁Рос	-11.3472
▁вопросах	-11.3474
фильтр	-11.3475
▁Велико	-11.3476
▁паспорта	-11.3477
▁письменно	-11.3478
▁мини	-11.3481
▁отбор	-11.3482
▁угол	-11.3483
▁теряет	-11.3489
▁сан	-11.3489
▁античн	-11.349
▁императора	-11.3494
▁сформировать	-11.3494
▁разделен	-11.3495
▁проблемам	-11.3495
▁налоговой	-11.3496
▁приступил	-11.3497
▁ангел	-11.3499
Роснефти	-11.3499
▁Богородицы	-11.3499
▁Вячеслав	-11.3499
▁Илюмжинов	-11.3499
▁Республике	-11.3499
▁Совершенно	-11.3499
▁Христов	-11.3499
▁деклараци	-11.3499
▁инвестиции	-11.3499
▁корабли	-11.3499
▁ландшафт	-11.3499
▁локомотив	-11.3499
▁пенсионер	-11.3499
▁пищу	-11.3499
▁принудительн	-11.3499
▁публиковать	-11.3499
▁революция	-11.3499
▁ситуаций	-11.3499
▁фамилию	-11.3499
▁особей	-11.3499
▁включил	-11.3499
▁добычи	-11.3499
▁ошибку	-11.3499
▁изучать	-11.3499
▁тысячелетия	-11.3499
▁Третий	-11.3499
▁противопоставл	-11.3499
▁человечество	-11.3499
▁запомнил	-11.3499
▁ступень	-11.3499
▁нейтральн	-11.3499
▁соцсети	-11.3499
▁Ангел	-11.3499
▁повезло	-11.3499
▁зимни	-11.35
▁Опять	-11.35
▁человеческих	-11.35
▁человеческий	-11.35
▁трога	-11.35
▁носителей	-11.35
▁VII	-11.35
▁Использование	-11.35
▁колебания	-11.35
▁белых	-11.35
▁потребление	-11.35
▁шахт	-11.35
▁корзин	-11.35
▁покупателя	-11.3501
▁сража	-11.3501
▁состоялось	-11.3501
▁Вертинский	-11.3501
▁дерева	-11.3501
▁реплик	-11.3501
▁служат	-11.3502
▁Франк	-11.3502
▁РАН	-11.3502
▁верхней	-11.3502
▁Участник	-11.3502
▁идиот	-11.3502
▁географически	-11.3502
▁обещают	-11.3503
▁изменилось	-11.3503
▁восстановления	-11.3503
▁Ситуация	-11.3503
▁лесн	-11.3504
Дождь	-11.3504
рока	-11.3505
▁Шар	-11.3505
▁современный	-11.3505
▁пластинки	-11.3505
▁нуждается	-11.3506
▁облака	-11.3506
▁сидят	-11.3507
▁ладно	-11.3507
падают	-11.3509
▁измеря	-11.3509
▁переезд	-11.351
▁сенатор	-11.351
▁хороших	-11.3511
▁животные	-11.3512
критик	-11.3512
▁христианство	-11.3512
▁глядя	-11.3513
▁Петербурга	-11.3513
более	-11.3514
▁отмене	-11.3516
▁длинные	-11.3516
▁героем	-11.3516
▁обязательным	-11.3516
▁Нарушени	-11.3516
ran	-11.3517
▁архитектор	-11.3518
бюрократи	-11.3519
▁прото	-11.3519
▁имеющий	-11.352
▁дивизион	-11.352
▁ссылки	-11.3521
становились	-11.3522
▁политическое	-11.3522
▁футбол	-11.3522
37	-11.3524
▁книжны	-11.3524
▁Пен	-11.3526
▁открывается	-11.3526
▁специфически	-11.3526
▁Любовь	-11.3527
▁30%	-11.3527
▁конфуцианства	-11.3527
▁зная	-11.3527
▁=)	-11.353
▁Гран	-11.353
▁крае	-11.353
▁компетенции	-11.353
▁юбилей	-11.3531
▁пушки	-11.3531
▁юрист	-11.3532
▁образцы	-11.3532
▁очков	-11.3532
▁русская	-11.3533
▁певица	-11.3533
▁демонстрирует	-11.3533
▁XII	-11.3535
..."	-11.3535
▁Япония	-11.3536
▁полей	-11.3539
▁читают	-11.3541
значить	-11.3541
▁мотор	-11.3543
▁парень	-11.3543
▁динамически	-11.3544
▁площадью	-11.3547
▁инфраструктуры	-11.3548
▁осмыслен	-11.3549
▁воспр	-11.355
▁Чита	-11.355
нить	-11.3551
▁прозы	-11.3553
▁жен	-11.3553
ell	-11.3553
▁приходил	-11.3554
ПС	-11.3554
▁создается	-11.3555
▁ректор	-11.3556
▁полным	-11.3556
▁местный	-11.3556
▁необычно	-11.3557
▁слушал	-11.3557
ременных	-11.3557
▁коли	-11.3557
▁найдены	-11.3559
▁указано	-11.356
▁молот	-11.3561
чил	-11.3562
▁квартиры	-11.3562
▁факту	-11.3563
▁рекомендации	-11.3566
ok	-11.3566
купить	-11.3567
▁включать	-11.3568
▁ОС	-11.3569
▁еды	-11.3569
▁команде	-11.357
▁рыбы	-11.3571
▁вашего	-11.3577
ённая	-11.3579
▁балла	-11.358
▁зубы	-11.3581
▁Екатерина	-11.3584
▁предварительным	-11.3584
▁Против	-11.3584
▁Тол	-11.3585
даль	-11.3587
▁установил	-11.3587
▁поддерживал	-11.359
▁установки	-11.359
вязывают	-11.359
нис	-11.3594
▁трат	-11.3594
▁4-	-11.3598
шер	-11.3598
инга	-11.3601
гур	-11.3601
Гугл	-11.3602
▁указывается	-11.3603
овав	-11.3604
ённым	-11.3604
гры	-11.3607
чук	-11.3607
▁гражданином	-11.3608
▁открытом	-11.3609
rt	-11.3612
▁популярным	-11.3612
▁погода	-11.3615
▁направил	-11.3616
▁увидели	-11.3617
▁изображением	-11.3618
▁Гл	-11.3619
▁Дела	-11.362
▁отбора	-11.362
▁записан	-11.3621
просто	-11.3622
▁Михалкова	-11.3623
ивать	-11.3624
▁запретили	-11.3624
анный	-11.3625
▁угла	-11.3625
шись	-11.3627
ТВ	-11.3628
▁генетическ	-11.3631
▁напряжен	-11.3633
▁открытого	-11.3635
▁результатах	-11.3635
▁английски	-11.3639
▁правах	-11.364
▁травм	-11.3644
▁сорока	-11.3648
▁наименовани	-11.3654
▁оформлен	-11.3656
Леди	-11.3658
▁готово	-11.3658
▁любому	-11.366
▁экономист	-11.366
▁Сын	-11.366
▁обрабатыва	-11.3661
▁расширен	-11.3662
▁общественное	-11.3663
87	-11.3663
▁северн	-11.3663
▁Правил	-11.3668
▁дополнительной	-11.3669
—3	-11.3671
▁спуск	-11.3671
▁братья	-11.3673
▁формой	-11.3679
▁символы	-11.368
▁получив	-11.3681
данную	-11.3682
▁Остера	-11.3682
▁основал	-11.3684
сервис	-11.3686
▁соединя	-11.3687
▁высказыва	-11.3687
▁боги	-11.3688
▁проявля	-11.3688
зло	-11.3692
▁одинаковы	-11.3693
▁Гос	-11.3694
▁отказыва	-11.3699
▁Рай	-11.3699
▁годами	-11.3701
▁поездка	-11.3706
▁думаете	-11.3708
▁сделаны	-11.371
▁журналиста	-11.3714
▁повышает	-11.3714
▁флот	-11.3716
▁вашем	-11.3717
▁Луне	-11.3718
▁советы	-11.3718
▁расположенны	-11.372
▁женщинам	-11.3724
▁предварительном	-11.3728
▁алкогол	-11.3731
▁биологически	-11.3731
▁службе	-11.3733
▁подразумева	-11.3737
▁пограничн	-11.3742
шку	-11.3744
▁грант	-11.3744
▁ислам	-11.3744
▁жену	-11.3746
РЕ	-11.3749
▁посоветовал	-11.3752
▁12-	-11.3753
▁наступления	-11.3754
▁125	-11.3755
▁внутренни	-11.3755
▁качеств	-11.3756
▁пригласил	-11.3756
▁бутылк	-11.3757
▁властям	-11.3757
▁племен	-11.3757
▁чудесн	-11.3758
стабильн	-11.3758
▁уступ	-11.3759
▁возможностью	-11.376
ико	-11.3762
▁глубина	-11.3763
До	-11.3764
Часкор	-11.3766
▁распада	-11.3769
▁Гай	-11.3769
лил	-11.377
▁Термин	-11.377
▁солнечны	-11.3773
▁договорам	-11.3773
▁портов	-11.3774
▁дурн	-11.3778
▁передача	-11.3781
грузка	-11.3781
▁музыканта	-11.3781
▁большее	-11.3783
исторического	-11.3785
знак	-11.3786
▁Запада	-11.3787
жир	-11.3789
▁настоящем	-11.3789
▁подарк	-11.3791
▁мышц	-11.3791
57	-11.38
▁Чайковск	-11.3803
▁издательск	-11.3803
73	-11.3805
▁юридическим	-11.3808
▁придёт	-11.3809
▁звен	-11.3809
▁поняла	-11.3809
▁приятн	-11.381
правильн	-11.3811
ализация	-11.3811
▁формирует	-11.3811
▁трибун	-11.3812
▁нетбук	-11.3814
▁квартир	-11.3814
▁(3	-11.3815
гадать	-11.382
▁шёл	-11.3822
▁бумаг	-11.3823
канал	-11.3823
▁редкость	-11.3823
▁решает	-11.3824
▁счастливы	-11.3825
▁изгнан	-11.3826
▁интер	-11.3827
▁for	-11.3828
▁обеда	-11.3828
▁Time	-11.3829
ичная	-11.383
▁соц	-11.3831
▁микроблог	-11.3831
▁подтвердили	-11.3832
▁Характер	-11.3832
чева	-11.3833
▁Влияние	-11.3833
▁Вооруженны	-11.3833
▁Литература	-11.3833
▁Семерых	-11.3833
▁Сколько	-11.3833
▁Чарльз	-11.3833
▁гарантии	-11.3833
▁драматург	-11.3833
▁историей	-11.3833
▁княгиня	-11.3833
▁музыкой	-11.3833
▁ненависть	-11.3833
▁отвечают	-11.3833
▁предотвратить	-11.3833
▁пятнадцати	-11.3833
▁религий	-11.3833
▁сможем	-11.3833
▁тридцать	-11.3833
Колумбус	-11.3833
провайдер	-11.3833
▁Чиркин	-11.3833
▁коммунистическ	-11.3833
▁компромисс	-11.3833
▁кошмар	-11.3833
▁отслежива	-11.3833
▁подъём	-11.3833
▁противодействи	-11.3833
▁Мураками	-11.3833
▁Фестивал	-11.3833
▁фильтрации	-11.3833
▁Земля	-11.3833
▁Intel	-11.3833
▁Скорее	-11.3833
▁вызывать	-11.3833
▁предположил	-11.3833
▁издатели	-11.3833
▁мульти	-11.3833
▁Оленька	-11.3833
▁посольств	-11.3833
▁Адриан	-11.3833
reative	-11.3833
▁Гордон	-11.3833
▁клеток	-11.3833
▁конструктор	-11.3833
▁коммуникаций	-11.3833
▁социум	-11.3833
▁произвел	-11.3833
▁существовании	-11.3833
▁Бирюк	-11.3833
▁выразить	-11.3833
▁столицу	-11.3833
▁сообщению	-11.3833
▁ученые	-11.3833
▁прекращение	-11.3833
▁следовало	-11.3833
▁акцию	-11.3833
▁1961	-11.3834
▁довольны	-11.3834
▁престол	-11.3834
▁мандалорцы	-11.3834
▁Центрально	-11.3834
▁Слыш	-11.3835
▁Гриши	-11.3835
▁1965	-11.3835
▁проверке	-11.3835
▁пересека	-11.3835
▁близости	-11.3835
▁полагал	-11.3835
▁курсов	-11.3835
▁1983	-11.3835
▁манги	-11.3836
▁произвольно	-11.3836
▁тотчас	-11.3837
▁оформления	-11.3837
▁платья	-11.3837
▁ждет	-11.3837
▁Задача	-11.3837
▁определении	-11.3839
▁долгов	-11.3839
▁свидетелей	-11.3839
od	-11.384
Газета	-11.384
везти	-11.384
▁интеллектуал	-11.3841
чисто	-11.3842
▁субкультур	-11.3842
▁нравственны	-11.3842
▁мощ	-11.3843
▁мокр	-11.3843
еликой	-11.3843
▁творческих	-11.3844
▁морских	-11.3845
▁написания	-11.3845
▁аккумулятор	-11.3845
ГО	-11.3846
▁железн	-11.3846
▁изображений	-11.3847
▁льда	-11.3847
▁дипломат	-11.3848
▁необходима	-11.3848
▁фермер	-11.3848
▁умеют	-11.3848
новой	-11.3849
▁крыс	-11.3849
▁чувствовать	-11.3849
▁зрителям	-11.385
▁абсурдно	-11.385
▁диван	-11.385
▁подошёл	-11.385
ляют	-11.385
▁нехватк	-11.385
▁Нельзя	-11.385
▁Дании	-11.3851
▁закрепи	-11.3851
▁культурных	-11.3852
▁чей	-11.3853
▁западные	-11.3853
▁напряжение	-11.3854
▁Брод	-11.3855
▁считаем	-11.3855
▁точностью	-11.3855
▁покупку	-11.3855
▁мясо	-11.3856
▁актуально	-11.3856
▁готовится	-11.3856
▁символического	-11.3857
▁отечественных	-11.3857
▁проявляется	-11.3858
▁Конфуций	-11.3858
▁1930-	-11.3858
▁террористов	-11.3859
▁дано	-11.3859
▁целое	-11.3861
▁надежду	-11.3862
▁Боб	-11.3862
▁светл	-11.3863
▁отказалась	-11.3865
▁канале	-11.3865
▁содержатся	-11.3866
▁истолкова	-11.3867
▁святых	-11.3867
▁лекарств	-11.3867
▁Маркс	-11.3868
▁сообщениям	-11.3868
▁карьеру	-11.3869
▁активистов	-11.387
▁содержательн	-11.387
▁орбиту	-11.387
▁передачу	-11.3871
▁верит	-11.3872
▁итальянски	-11.3873
▁сравнение	-11.3873
бывших	-11.3873
▁рынках	-11.3873
▁бывал	-11.3873
▁проверка	-11.3874
▁склонны	-11.3875
▁упомянуты	-11.3875
▁совершени	-11.3876
▁отменить	-11.3876
цвет	-11.3878
писывать	-11.3878
▁дипломатически	-11.3878
▁итальянского	-11.3879
▁годовщин	-11.3881
▁тратить	-11.3881
▁знакомые	-11.3881
▁воздушно	-11.3882
▁;)	-11.3883
▁прекрасны	-11.3883
▁взяты	-11.3884
▁спортом	-11.3884
▁церемони	-11.3884
кладывает	-11.3885
▁судами	-11.3886
▁национальный	-11.3888
»...	-11.3889
▁приемлем	-11.3893
▁аналогии	-11.3893
▁самолета	-11.3896
▁считался	-11.3897
▁семейства	-11.3897
ног	-11.39
▁сигналов	-11.39
▁свободный	-11.3901
▁указаны	-11.3903
▁древ	-11.3903
качественных	-11.3903
▁Un	-11.3904
▁встретить	-11.3904
46	-11.3904
▁клип	-11.3906
▁моста	-11.3907
▁долей	-11.3907
▁смены	-11.3909
▁отход	-11.3911
▁механизмов	-11.3914
▁концертов	-11.3915
▁диабетом	-11.3915
▁секунды	-11.3918
▁российско	-11.3919
▁динамическ	-11.392
▁Миров	-11.3922
▁глубине	-11.3922
рендатор	-11.3922
▁женской	-11.3928
центра	-11.3928
чью	-11.3928
▁представлено	-11.3929
▁сохранени	-11.3932
пират	-11.3933
▁посла	-11.3933
▁документально	-11.3935
▁оплат	-11.3935
▁ракеты	-11.3938
▁звучал	-11.3939
▁ходили	-11.3942
ствия	-11.3942
▁бокс	-11.3942
▁лад	-11.3943
2000	-11.3944
▁орбите	-11.3945
▁частным	-11.3945
▁свободные	-11.3946
▁образует	-11.3947
out	-11.3947
▁кабинета	-11.3949
▁многими	-11.3953
▁креп	-11.3954
▁документальны	-11.3955
бук	-11.3958
▁совершенствова	-11.3962
▁низкой	-11.3962
▁ненужн	-11.3965
▁реальны	-11.3968
gu	-11.3968
▁предусмотренном	-11.3969
▁демонстраци	-11.397
меняются	-11.3972
▁берегов	-11.3974
▁Ким	-11.3974
▁приобрела	-11.3976
▁ограничива	-11.3976
ительный	-11.3977
▁абсурда	-11.3977
ies	-11.3978
Авто	-11.3978
иваем	-11.3979
▁развлекательн	-11.3982
▁советским	-11.3985
▁погод	-11.3985
оставить	-11.3986
▁доступно	-11.3988
▁намерены	-11.399
▁Никита	-11.399
▁эффекты	-11.399
оспособности	-11.3995
▁крупнейшим	-11.3997
▁оснащен	-11.3998
▁выразительн	-11.3999
боль	-11.4
▁предусмотренн	-11.4
▁рождение	-11.4
▁СК	-11.4001
▁сыном	-11.4001
нева	-11.4003
▁Верховны	-11.4006
▁негативно	-11.4007
▁транзит	-11.4008
▁кругу	-11.4008
▁Дальне	-11.4009
▁процедура	-11.4009
▁хар	-11.401
▁n	-11.4011
ёб	-11.4012
▁вызывающи	-11.4018
▁це	-11.4018
▁ранен	-11.4019
▁рассказала	-11.4019
вшем	-11.402
▁богатства	-11.4023
▁вспомогательн	-11.4023
▁правами	-11.4025
▁центры	-11.4029
▁Бре	-11.4029
стройки	-11.4032
▁близ	-11.4032
▁священника	-11.4033
ирующих	-11.4034
▁жестк	-11.4034
достаточн	-11.4035
ступают	-11.4035
сторонних	-11.4038
▁листа	-11.404
▁старой	-11.4041
▁La	-11.4042
▁правяще	-11.4047
▁наверно	-11.4051
▁недолго	-11.4052
▁добав	-11.4052
бывает	-11.4053
возможности	-11.4053
альное	-11.4054
▁экране	-11.4056
▁Браун	-11.4059
▁данному	-11.406
▁инициатива	-11.406
▁предъявлени	-11.4061
▁ковчега	-11.4061
Ста	-11.4065
▁земно	-11.4065
▁торжественно	-11.4066
▁числом	-11.4068
▁Интернета	-11.4069
▁результатами	-11.4073
▁участвующи	-11.4074
▁компаниями	-11.4074
▁женщиной	-11.4076
▁узнав	-11.408
▁железнодорожны	-11.4081
▁мелко	-11.4082
▁углевод	-11.4082
▁величина	-11.4082
▁сайтах	-11.4083
▁одева	-11.4084
▁телевизионны	-11.4085
▁настоящему	-11.4101
▁поддержал	-11.4102
▁хозяй	-11.4102
▁высоким	-11.4104
равне	-11.4105
43	-11.4107
▁таинств	-11.4107
▁предполагаем	-11.4108
▁магазине	-11.4111
▁священно	-11.4114
▁итог	-11.4117
▁играх	-11.4117
Эту	-11.412
▁живопис	-11.412
▁искр	-11.412
▁Лан	-11.4126
one	-11.4127
угольн	-11.4129
Под	-11.413
▁доставлен	-11.413
▁гуманитарн	-11.4132
иками	-11.4134
▁Дума	-11.4135
▁завтрак	-11.4137
▁отмечен	-11.4139
зывая	-11.4142
▁сильной	-11.4142
▁обслужива	-11.4142
▁Грин	-11.4144
▁апелляци	-11.4144
nes	-11.4145
юда	-11.4145
▁взаимосвяз	-11.4146
онного	-11.4147
▁правов	-11.4148
▁работоспособн	-11.415
▁повторил	-11.4151
▁надзор	-11.4152
▁претендент	-11.4152
▁Эксперт	-11.4154
▁паре	-11.4155
▁надежда	-11.4155
▁равен	-11.4155
▁Оп	-11.4156
▁предложенны	-11.4157
1-	-11.4159
▁дальне	-11.4159
▁спроса	-11.416
▁поиски	-11.4165
▁воспита	-11.4165
▁сотрудникам	-11.4166
▁состоять	-11.4166
▁Ac	-11.4167
▁содержал	-11.4167
▁немецкого	-11.4168
▁56	-11.4168
▁слушател	-11.417
ik	-11.417
▁определенным	-11.4171
ьного	-11.4173
▁тесн	-11.4175
▁столе	-11.4176
▁захотел	-11.4176
▁захватил	-11.4177
▁абонент	-11.4177
▁милиционер	-11.4177
Вояджер	-11.4177
▁Classcraft	-11.4177
▁Guardian	-11.4177
▁Василько	-11.4177
▁Мэтлок	-11.4177
▁Похоже	-11.4177
▁Собянин	-11.4177
▁Украину	-11.4177
▁ЦРУ	-11.4177
▁Янукович	-11.4177
▁выясняется	-11.4177
▁гульден	-11.4177
▁деревьев	-11.4177
▁заплатил	-11.4177
▁интеллигент	-11.4177
▁контингент	-11.4177
▁лошадь	-11.4177
▁несомненно	-11.4177
▁повлиять	-11.4177
▁попытался	-11.4177
▁последователей	-11.4177
▁послужил	-11.4177
▁продукцию	-11.4177
▁произошел	-11.4177
▁религия	-11.4177
▁репертуар	-11.4177
▁Лучше	-11.4177
▁обезьян	-11.4177
▁уровню	-11.4177
▁Brit	-11.4177
▁Вдруг	-11.4177
▁выявить	-11.4177
▁узнает	-11.4177
▁копеек	-11.4177
▁милиции	-11.4177
▁сессии	-11.4177
▁Польша	-11.4177
▁багаж	-11.4177
▁синоним	-11.4177
▁мрачны	-11.4177
▁яркие	-11.4177
▁Чехии	-11.4177
▁масштаба	-11.4177
▁царь	-11.4177
▁пешеход	-11.4177
▁Skype	-11.4178
▁полноценны	-11.4178
▁Польше	-11.4178
▁доверия	-11.4178
▁монастыря	-11.4178
гражден	-11.4178
▁эссе	-11.4178
▁атомов	-11.4178
▁белые	-11.4178
▁микрофон	-11.4178
▁Сирии	-11.4178
▁хакер	-11.4179
▁1943	-11.4179
▁надеются	-11.4179
▁SMS	-11.4179
▁Британии	-11.4179
▁подготовил	-11.4179
▁древности	-11.4179
▁облож	-11.4179
▁победителя	-11.4179
▁Штатах	-11.4179
▁1963	-11.4179
▁подража	-11.4179
▁закончилось	-11.418
▁старший	-11.418
▁баррель	-11.418
▁2222	-11.418
▁1978	-11.418
▁Сим	-11.418
▁капиталистическ	-11.418
▁обозначения	-11.418
▁крыше	-11.4181
▁опасения	-11.4181
▁плоскости	-11.4182
нном	-11.4182
▁Теори	-11.4182
▁обруши	-11.4182
▁обитания	-11.4182
▁определению	-11.4182
▁оценивать	-11.4183
▁увеличивается	-11.4183
▁неделя	-11.4183
▁песок	-11.4183
▁атеист	-11.4183
▁мороз	-11.4183
▁франк	-11.4184
▁камень	-11.4185
▁рассказали	-11.4185
▁оптимизации	-11.4185
▁Размер	-11.4185
▁взаимосвязей	-11.4185
▁радости	-11.4185
▁соблюдать	-11.4187
▁Иванович	-11.4187
▁древнегреческ	-11.4187
▁озеро	-11.4187
▁высот	-11.4188
▁подчеркнуть	-11.4188
▁показала	-11.4188
▁тягот	-11.4188
▁соревнований	-11.4189
▁голосовать	-11.419
▁Наибольш	-11.419
▁родилась	-11.419
▁Чжоу	-11.4191
▁шкал	-11.4192
▁дно	-11.4193
▁длинный	-11.4194
лоп	-11.4195
▁исполняется	-11.4195
▁надежность	-11.4196
▁конструкций	-11.4196
▁намерения	-11.4198
▁Новы	-11.4199
▁стада	-11.4199
▁эволюционно	-11.4199
▁красные	-11.42
port	-11.4201
▁правовые	-11.4202
▁площадка	-11.4202
▁важная	-11.4203
▁Илья	-11.4203
▁отходов	-11.4203
качественн	-11.4204
▁Савонаролы	-11.4205
▁японского	-11.4205
▁устроить	-11.4206
▁зелёны	-11.4206
▁дед	-11.4207
▁врагов	-11.421
▁простые	-11.421
▁существа	-11.4211
▁мужем	-11.4211
земного	-11.4211
▁можешь	-11.4212
▁Последнее	-11.4212
▁Эрик	-11.4212
бэ	-11.4212
▁Лос	-11.4214
▁верил	-11.4214
эта	-11.4214
▁стоять	-11.4214
▁ограниченного	-11.4215
▁меняет	-11.4215
▁орбиты	-11.4215
▁поверх	-11.4217
▁выходные	-11.4217
ьное	-11.4218
▁давности	-11.4218
▁просят	-11.4218
▁запустить	-11.4219
▁бывало	-11.4219
▁браузер	-11.4219
▁сотен	-11.4221
▁специальности	-11.4221
▁тайн	-11.4221
▁тура	-11.4222
▁деревянны	-11.4223
▁мотивы	-11.4224
ov	-11.4224
▁осуществляться	-11.4226
▁юноше	-11.4229
▁собственником	-11.423
▁взаимоотношения	-11.4231
▁экспериментов	-11.4231
▁63	-11.4231
▁величину	-11.4233
▁постройки	-11.4235
▁Василия	-11.4235
▁Картина	-11.4237
▁ожидаем	-11.4237
▁конфликтов	-11.4237
▁ранней	-11.4239
▁создателя	-11.4241
▁заинтересованы	-11.4242
▁исторической	-11.4243
▁стандартов	-11.4244
▁преимуществ	-11.4245
▁хозяйство	-11.4246
▁земной	-11.4247
▁тревоги	-11.4247
▁внутренн	-11.4247
▁ученики	-11.4248
▁импринтинг	-11.425
▁забывать	-11.425
толкнул	-11.4252
конечн	-11.4252
▁Крыму	-11.4253
tu	-11.4253
▁факта	-11.4254
▁Стан	-11.4254
▁высокими	-11.4255
▁конфуцианск	-11.4255
▁Баку	-11.4257
▁отцу	-11.4257
"):	-11.4258
монт	-11.426
▁обрядов	-11.4261
▁галере	-11.4264
▁подтверждающи	-11.4264
▁театральны	-11.4266
▁Благо	-11.4267
ящихся	-11.4268
▁ходатайство	-11.4268
▁секунду	-11.4269
▁Игра	-11.4272
▁удобства	-11.4272
▁драк	-11.4273
▁берёт	-11.4273
▁условием	-11.4273
▁имело	-11.4274
▁мировым	-11.4274
▁философски	-11.4275
Транс	-11.4279
—2	-11.428
Кто	-11.4282
▁технически	-11.4283
▁берет	-11.4283
▁инструменты	-11.4285
▁главу	-11.4285
менён	-11.4286
▁экрана	-11.4287
алы	-11.4288
▁французский	-11.4289
▁разрабатывает	-11.4289
▁близкие	-11.4291
▁приняло	-11.4291
▁Бывши	-11.4294
▁мас	-11.4295
▁легенда	-11.4295
Интер	-11.4297
бывать	-11.4302
▁глуп	-11.4303
▁оставили	-11.4303
▁специфик	-11.4306
▁аппарата	-11.4307
фиг	-11.4316
Jo	-11.4317
▁мотиваци	-11.4318
:30	-11.4319
▁живым	-11.432
▁Po	-11.432
▁Мать	-11.432
▁образующи	-11.4322
▁стул	-11.4323
▁РК	-11.4326
▁верны	-11.4326
▁жанров	-11.4335
ведет	-11.4336
▁оценивает	-11.4336
▁фонды	-11.4336
▁совершал	-11.4336
▁важнейши	-11.4337
▁ближайших	-11.4337
демократическ	-11.4338
▁скрип	-11.4339
▁обряд	-11.4345
▁Главным	-11.4345
▁пустой	-11.4345
▁оптимально	-11.4346
ST	-11.4347
▁достигла	-11.4348
No	-11.4351
сюду	-11.4352
▁китайски	-11.4355
▁квартале	-11.4356
▁воздействием	-11.4357
▁квартира	-11.4358
▁управлением	-11.436
▁объединяет	-11.4363
▁выжив	-11.4364
▁коллега	-11.4367
▁перейд	-11.4367
▁частном	-11.4369
▁слове	-11.4372
▁Перу	-11.4372
▁имеющим	-11.4377
гель	-11.4379
▁действительн	-11.4381
▁знаки	-11.4382
сада	-11.4383
▁подтвержден	-11.4386
Семь	-11.4387
▁максимальн	-11.4388
▁ваш	-11.4388
казывают	-11.4389
▁мисс	-11.4391
▁митинга	-11.4391
▁простого	-11.4391
▁j	-11.4393
▁чин	-11.4393
▁парад	-11.4394
▁классы	-11.4395
▁монополи	-11.4396
ответ	-11.44
▁магнит	-11.44
Инд	-11.4402
▁корне	-11.4402
тысяч	-11.4403
▁президенты	-11.4405
▁ментал	-11.4407
▁формата	-11.4407
▁настроен	-11.4409
▁рос	-11.4412
▁Член	-11.4414
▁выпустила	-11.4414
▁конгресс	-11.4415
▁скрыты	-11.4415
▁исключает	-11.4418
▁нашел	-11.4418
▁преоблада	-11.442
женских	-11.4422
▁видела	-11.4425
▁уклон	-11.4425
▁ордена	-11.4425
▁достал	-11.4426
▁принца	-11.4427
▁постанов	-11.4429
меняется	-11.443
частной	-11.4431
▁вооруженны	-11.4432
▁сон	-11.4433
ключения	-11.4435
▁авангард	-11.4436
▁персонал	-11.4439
▁Казахстана	-11.4441
▁африкански	-11.4441
▁лето	-11.4441
▁заместител	-11.4446
Ты	-11.4447
▁сообщал	-11.4453
▁задал	-11.4456
▁инициатив	-11.4456
ступлении	-11.4458
▁пострадал	-11.4458
▁разделе	-11.4458
ica	-11.4459
▁септ	-11.4461
▁сроков	-11.4463
▁получаемы	-11.4468
▁бил	-11.447
▁потерпевши	-11.4471
▁ответили	-11.4474
медиа	-11.4474
▁производит	-11.4476
ывания	-11.4476
▁рока	-11.4477
▁Ум	-11.4477
▁Иде	-11.4479
▁придумал	-11.448
▁праздники	-11.448
▁снижает	-11.4481
▁израильск	-11.4481
несло	-11.4482
востоке	-11.4484
вязан	-11.4484
▁испански	-11.4485
ставляю	-11.4487
▁Ага	-11.449
▁исполнитель	-11.4496
▁накопи	-11.4496
большой	-11.4498
▁южно	-11.4498
▁слив	-11.4498
▁5%	-11.4502
▁обнаруживает	-11.4504
▁риска	-11.4508
бесплатн	-11.4508
▁меру	-11.4509
▁экземпляр	-11.451
гружен	-11.451
▁убедить	-11.451
▁начнёт	-11.451
▁пальца	-11.4512
▁фильмом	-11.4512
▁пошло	-11.4515
▁ожидает	-11.4516
▁зарубежны	-11.4517
брит	-11.4518
▁смягч	-11.4518
▁представляющи	-11.4518
▁возложен	-11.4518
▁благоприятны	-11.452
▁условиями	-11.4521
▁зрел	-11.4523
механическ	-11.4525
▁успокои	-11.4525
▁предоставляет	-11.4525
▁националист	-11.4526
едет	-11.4528
▁законно	-11.4529
▁плоско	-11.4531
▁ассоцииру	-11.4535
▁гибрид	-11.4535
▁BBC	-11.4535
▁Forbes	-11.4535
▁World	-11.4535
▁ФИФА	-11.4535
▁Швеции	-11.4535
▁Ющенко	-11.4535
▁аутентичн	-11.4535
▁богослужения	-11.4535
▁десятилетий	-11.4535
▁достижений	-11.4535
▁жёстки	-11.4535
▁кладбище	-11.4535
▁комментарии	-11.4535
▁крейсер	-11.4535
▁людях	-11.4535
▁наследие	-11.4535
▁небольшое	-11.4535
▁пострадавших	-11.4535
▁поэзии	-11.4535
▁произойти	-11.4535
▁произошёл	-11.4535
▁происшествия	-11.4535
▁равновесия	-11.4535
▁радостно	-11.4535
▁распространил	-11.4535
▁ребёнок	-11.4535
▁самоубийств	-11.4535
▁сплошн	-11.4535
▁стипенди	-11.4535
▁суверенитет	-11.4535
▁трлн	-11.4535
▁Дальше	-11.4535
▁видеоролик	-11.4535
▁инноград	-11.4535
▁обнаружить	-11.4535
▁предоставил	-11.4535
▁преподавателя	-11.4535
▁прочитать	-11.4535
▁убытки	-11.4535
▁деятелей	-11.4535
▁писатели	-11.4535
▁приехать	-11.4535
▁умирает	-11.4535
хентай	-11.4535
▁захочет	-11.4535
▁кричал	-11.4535
▁дольше	-11.4535
▁повсеместно	-11.4535
news	-11.4535
▁посёлк	-11.4535
▁признаёт	-11.4535
▁убежда	-11.4535
▁проклят	-11.4535
▁Озеров	-11.4535
▁фиксирова	-11.4535
▁зимне	-11.4535
▁публикаций	-11.4535
▁Набоков	-11.4535
▁проанализирова	-11.4535
▁Средне	-11.4535
▁объявля	-11.4535
▁станций	-11.4535
▁формировании	-11.4535
▁гетто	-11.4535
Социал	-11.4535
▁ориентации	-11.4535
▁допинг	-11.4536
▁холм	-11.4536
▁желает	-11.4536
▁будешь	-11.4536
▁проиграл	-11.4536
▁озера	-11.4536
▁исков	-11.4536
▁совокупности	-11.4536
▁грузинско	-11.4536
▁патрон	-11.4536
▁старух	-11.4536
▁Значительн	-11.4536
▁задуматься	-11.4537
▁применению	-11.4537
▁сообщить	-11.4537
▁учёный	-11.4538
▁релиз	-11.4538
▁журналистики	-11.4538
▁отклонения	-11.4538
▁чужих	-11.4538
▁репутацию	-11.4539
▁пыль	-11.4539
▁подтверждения	-11.4539
▁Господь	-11.4539
▁нарушил	-11.4539
▁заявок	-11.454
▁Иск	-11.454
▁100%	-11.454
▁хаос	-11.454
▁нарушений	-11.4541
▁лишний	-11.4542
глу	-11.4542
▁духовны	-11.4542
▁Пресс	-11.4543
▁справедливости	-11.4543
оставление	-11.4543
▁исследователей	-11.4544
▁So	-11.4544
▁возникло	-11.4544
▁обращаться	-11.4544
▁сведениям	-11.4545
BY	-11.4545
▁открывает	-11.4546
▁CC	-11.4546
аэро	-11.4546
▁морали	-11.4547
▁экстра	-11.4547
секс	-11.4549
▁метана	-11.4549
▁вооружений	-11.4549
ствовал	-11.455
▁понимаешь	-11.455
▁намерении	-11.455
▁юридическ	-11.4552
▁Анастасия	-11.4554
▁аборигенов	-11.4554
падать	-11.4554
▁привет	-11.4555
▁приводил	-11.4555
▁представлений	-11.4555
▁Мисс	-11.4556
▁кожи	-11.4557
▁состоящи	-11.4557
▁ищет	-11.4557
▁Священн	-11.4559
▁зарабатывать	-11.4559
ленные	-11.456
▁рождается	-11.456
▁отправляется	-11.456
▁регламент	-11.456
▁точке	-11.456
▁осужден	-11.4561
▁показалось	-11.4562
▁противников	-11.4562
элл	-11.4563
▁сделав	-11.4565
▁принести	-11.4566
СК	-11.4568
▁своевременно	-11.4568
▁уменьшить	-11.4569
▁кровью	-11.4569
▁эмоции	-11.457
настоящ	-11.457
▁занимались	-11.457
▁альтернативн	-11.4571
▁карьеры	-11.4572
▁ОП	-11.4573
сами	-11.4574
▁семейных	-11.4574
▁агентов	-11.4574
▁гуманитарной	-11.4574
▁перечисленных	-11.4574
▁запустил	-11.4575
▁ван	-11.4578
▁отставки	-11.4579
▁модернизации	-11.458
▁точек	-11.458
▁предусмотрены	-11.4581
робот	-11.4581
▁исключительн	-11.4582
▁неадекватн	-11.4584
▁боли	-11.4585
▁продал	-11.4586
▁трени	-11.4587
▁зубов	-11.4588
▁Никак	-11.4589
▁укреплени	-11.459
▁позволило	-11.4591
▁короткий	-11.4591
▁аннулир	-11.4591
▁показано	-11.4592
▁рубежом	-11.4592
▁немецки	-11.4592
▁заказчик	-11.4592
▁положено	-11.4593
▁фразу	-11.4594
▁тюремн	-11.4595
▁потребительски	-11.4597
▁Смерть	-11.4598
▁сирот	-11.4598
▁аккуратно	-11.46
[...]
